{
  "version": "1.0",
  "truncation": null,
  "padding": null,
  "added_tokens": [
    {
      "id": 0,
      "content": "<unk>",
      "single_word": false,
      "lstrip": false,
      "rstrip": false,
      "normalized": false,
      "special": true
    },
    {
      "id": 1,
      "content": "<s>",
      "single_word": false,
      "lstrip": false,
      "rstrip": false,
      "normalized": false,
      "special": true
    },
    {
      "id": 2,
      "content": "</s>",
      "single_word": false,
      "lstrip": false,
      "rstrip": false,
      "normalized": false,
      "special": true
    },
    {
      "id": 3,
      "content": "<pad>",
      "single_word": false,
      "lstrip": false,
      "rstrip": false,
      "normalized": false,
      "special": true
    }
  ],
  "normalizer": null,
  "pre_tokenizer": {
    "type": "Whitespace"
  },
  "post_processor": {
    "type": "TemplateProcessing",
    "single": [
      {
        "SpecialToken": {
          "id": "<s>",
          "type_id": 0
        }
      },
      {
        "Sequence": {
          "id": "A",
          "type_id": 0
        }
      },
      {
        "SpecialToken": {
          "id": "</s>",
          "type_id": 0
        }
      }
    ],
    "pair": [
      {
        "SpecialToken": {
          "id": "<s>",
          "type_id": 0
        }
      },
      {
        "Sequence": {
          "id": "A",
          "type_id": 0
        }
      },
      {
        "SpecialToken": {
          "id": "</s>",
          "type_id": 0
        }
      },
      {
        "Sequence": {
          "id": "B",
          "type_id": 1
        }
      },
      {
        "SpecialToken": {
          "id": "</s>",
          "type_id": 1
        }
      }
    ],
    "special_tokens": {
      "</s>": {
        "id": "</s>",
        "ids": [
          2
        ],
        "tokens": [
          "</s>"
        ]
      },
      "<s>": {
        "id": "<s>",
        "ids": [
          1
        ],
        "tokens": [
          "<s>"
        ]
      }
    }
  },
  "decoder": null,
  "model": {
    "type": "BPE",
    "dropout": null,
    "unk_token": "<unk>",
    "continuing_subword_prefix": null,
    "end_of_word_suffix": null,
    "fuse_unk": false,
    "byte_fallback": false,
    "ignore_merges": false,
    "vocab": {
      "<unk>": 0,
      "<s>": 1,
      "</s>": 2,
      "<pad>": 3,
      "!": 4,
      "\"": 5,
      "$": 6,
      "%": 7,
      "&": 8,
      "'": 9,
      "(": 10,
      ")": 11,
      "*": 12,
      "+": 13,
      ",": 14,
      "-": 15,
      ".": 16,
      "/": 17,
      "0": 18,
      "1": 19,
      "2": 20,
      "3": 21,
      "4": 22,
      "5": 23,
      "6": 24,
      "7": 25,
      "8": 26,
      "9": 27,
      ":": 28,
      ";": 29,
      "?": 30,
      "@": 31,
      "A": 32,
      "B": 33,
      "C": 34,
      "D": 35,
      "E": 36,
      "F": 37,
      "G": 38,
      "H": 39,
      "I": 40,
      "J": 41,
      "K": 42,
      "L": 43,
      "M": 44,
      "N": 45,
      "O": 46,
      "P": 47,
      "Q": 48,
      "R": 49,
      "S": 50,
      "T": 51,
      "U": 52,
      "V": 53,
      "W": 54,
      "X": 55,
      "Y": 56,
      "Z": 57,
      "[": 58,
      "\\": 59,
      "]": 60,
      "_": 61,
      "`": 62,
      "a": 63,
      "b": 64,
      "c": 65,
      "d": 66,
      "e": 67,
      "f": 68,
      "g": 69,
      "h": 70,
      "i": 71,
      "j": 72,
      "k": 73,
      "l": 74,
      "m": 75,
      "n": 76,
      "o": 77,
      "p": 78,
      "q": 79,
      "r": 80,
      "s": 81,
      "t": 82,
      "u": 83,
      "v": 84,
      "w": 85,
      "x": 86,
      "y": 87,
      "z": 88,
      "¢": 89,
      "¦": 90,
      "©": 91,
      "ª": 92,
      "­": 93,
      "¯": 94,
      "±": 95,
      "´": 96,
      "Â": 97,
      "Ã": 98,
      "â": 99,
      "œ": 100,
      "Š": 101,
      "Ž": 102,
      "ž": 103,
      "˜": 104,
      "“": 105,
      "”": 106,
      "€": 107,
      "™": 108,
      "he": 109,
      "an": 110,
      "the": 111,
      "ed": 112,
      "and": 113,
      "to": 114,
      "in": 115,
      "re": 116,
      "ou": 117,
      "wa": 118,
      "it": 119,
      "ha": 120,
      "er": 121,
      "was": 122,
      "om": 123,
      "en": 124,
      "on": 125,
      "ar": 126,
      "The": 127,
      "is": 128,
      "ing": 129,
      "il": 130,
      "sa": 131,
      "id": 132,
      "le": 133,
      "ay": 134,
      "im": 135,
      "lo": 136,
      "al": 137,
      "st": 138,
      "or": 139,
      "her": 140,
      "He": 141,
      "She": 142,
      "ir": 143,
      "th": 144,
      "They": 145,
      "be": 146,
      "ne": 147,
      "hat": 148,
      "ver": 149,
      "ut": 150,
      "se": 151,
      "ke": 152,
      "at": 153,
      "no": 154,
      "ck": 155,
      "ld": 156,
      "ce": 157,
      "said": 158,
      "am": 159,
      "ve": 160,
      "ri": 161,
      "ily": 162,
      "she": 163,
      "pl": 164,
      "ith": 165,
      "pp": 166,
      "of": 167,
      "ad": 168,
      "with": 169,
      "ig": 170,
      "his": 171,
      "Lily": 172,
      "un": 173,
      "you": 174,
      "ked": 175,
      "so": 176,
      "ly": 177,
      "day": 178,
      "very": 179,
      "we": 180,
      "li": 181,
      "ome": 182,
      "my": 183,
      "that": 184,
      "go": 185,
      "up": 186,
      "ow": 187,
      "ant": 188,
      "es": 189,
      "as": 190,
      "ch": 191,
      "had": 192,
      "play": 193,
      "for": 194,
      "they": 195,
      "mom": 196,
      "el": 197,
      "nd": 198,
      "ould": 199,
      "all": 200,
      "end": 201,
      "bo": 202,
      "happ": 203,
      "ent": 204,
      "ok": 205,
      "want": 206,
      "itt": 207,
      "ge": 208,
      "are": 209,
      "tim": 210,
      "It": 211,
      "out": 212,
      "do": 213,
      "not": 214,
      "ro": 215,
      "ound": 216,
      "ther": 217,
      "ittle": 218,
      "time": 219,
      "little": 220,
      "there": 221,
      "ry": 222,
      "sh": 223,
      "ra": 224,
      "ht": 225,
      "happy": 226,
      "sm": 227,
      "big": 228,
      "but": 229,
      "ys": 230,
      "fri": 231,
      "saw": 232,
      "ake": 233,
      "friend": 234,
      ".\"": 235,
      "ter": 236,
      "ack": 237,
      "ul": 238,
      "thing": 239,
      "some": 240,
      "ide": 241,
      "One": 242,
      "one": 243,
      "Tim": 244,
      "!\"": 245,
      "On": 246,
      "ug": 247,
      "were": 248,
      "ved": 249,
      "Once": 250,
      "ho": 251,
      "car": 252,
      "him": 253,
      "fe": 254,
      "irl": 255,
      "pe": 256,
      "Tom": 257,
      "girl": 258,
      "wanted": 259,
      "upon": 260,
      "ful": 261,
      "them": 262,
      "ur": 263,
      "Ben": 264,
      "ind": 265,
      "their": 266,
      "ill": 267,
      "ag": 268,
      "smil": 269,
      "co": 270,
      "me": 271,
      "did": 272,
      "could": 273,
      "have": 274,
      "ex": 275,
      "hen": 276,
      "mo": 277,
      "can": 278,
      "But": 279,
      "hel": 280,
      "went": 281,
      "rom": 282,
      "ted": 283,
      "new": 284,
      "de": 285,
      "od": 286,
      "?\"": 287,
      "nam": 288,
      "friends": 289,
      "um": 290,
      "help": 291,
      "back": 292,
      "ab": 293,
      "way": 294,
      "fel": 295,
      "hed": 296,
      "You": 297,
      "fun": 298,
      "like": 299,
      "man": 300,
      "ain": 301,
      "par": 302,
      "side": 303,
      "ran": 304,
      "fo": 305,
      "ic": 306,
      "too": 307,
      "ght": 308,
      "Timmy": 309,
      "po": 310,
      "smiled": 311,
      "star": 312,
      "named": 313,
      "loved": 314,
      "asked": 315,
      "loo": 316,
      "et": 317,
      "Mom": 318,
      "la": 319,
      "low": 320,
      "see": 321,
      "felt": 322,
      "ard": 323,
      "own": 324,
      "looked": 325,
      "ick": 326,
      "around": 327,
      "sto": 328,
      "ame": 329,
      "pr": 330,
      "make": 331,
      "ure": 332,
      "bir": 333,
      "would": 334,
      "wor": 335,
      "fa": 336,
      "now": 337,
      "other": 338,
      "boy": 339,
      "ong": 340,
      "bird": 341,
      "gr": 342,
      "park": 343,
      "what": 344,
      "ice": 345,
      "mad": 346,
      "ll": 347,
      "op": 348,
      "tre": 349,
      "ss": 350,
      "away": 351,
      "gether": 352,
      ",\"": 353,
      "ca": 354,
      "dd": 355,
      "started": 356,
      "says": 357,
      "oud": 358,
      "made": 359,
      "came": 360,
      "na": 361,
      "together": 362,
      "get": 363,
      "look": 364,
      "something": 365,
      "ight": 366,
      "ited": 367,
      "put": 368,
      "sad": 369,
      "got": 370,
      "from": 371,
      "ts": 372,
      "exc": 373,
      "scar": 374,
      "ue": 375,
      "ach": 376,
      "if": 377,
      "home": 378,
      "mu": 379,
      "good": 380,
      "ie": 381,
      "wal": 382,
      "again": 383,
      "who": 384,
      "found": 385,
      "then": 386,
      "ried": 387,
      "pped": 388,
      "more": 389,
      "dec": 390,
      "when": 391,
      "hug": 392,
      "playing": 393,
      "ci": 394,
      "ought": 395,
      "ep": 396,
      "king": 397,
      "ave": 398,
      "ally": 399,
      "liked": 400,
      "things": 401,
      "by": 402,
      "der": 403,
      "excited": 404,
      "Sam": 405,
      "ru": 406,
      "ous": 407,
      "An": 408,
      "ided": 409,
      "ny": 410,
      "your": 411,
      "every": 412,
      "decided": 413,
      "us": 414,
      "dog": 415,
      "ax": 416,
      "ouse": 417,
      "ara": 418,
      "scared": 419,
      "down": 420,
      "care": 421,
      "find": 422,
      "use": 423,
      "sha": 424,
      "than": 425,
      "ang": 426,
      "We": 427,
      "take": 428,
      "Max": 429,
      "ac": 430,
      "pre": 431,
      "feel": 432,
      "spe": 433,
      "dad": 434,
      "arn": 435,
      "wo": 436,
      "Anna": 437,
      "ways": 438,
      "ate": 439,
      "jo": 440,
      "udd": 441,
      "our": 442,
      "Sara": 443,
      "clo": 444,
      "will": 445,
      "here": 446,
      "took": 447,
      "didn": 448,
      "always": 449,
      "ite": 450,
      "about": 451,
      "toys": 452,
      "qu": 453,
      "mommy": 454,
      "know": 455,
      "ise": 456,
      "learn": 457,
      "thought": 458,
      "old": 459,
      "outside": 460,
      "ers": 461,
      "tree": 462,
      "bb": 463,
      "te": 464,
      "sor": 465,
      "So": 466,
      "ma": 467,
      "ened": 468,
      "ive": 469,
      "ust": 470,
      "wh": 471,
      "fore": 472,
      "ty": 473,
      "room": 474,
      "Jo": 475,
      "cat": 476,
      "When": 477,
      "red": 478,
      "laug": 479,
      "run": 480,
      "knew": 481,
      "udden": 482,
      "speci": 483,
      "ged": 484,
      "special": 485,
      "ball": 486,
      "Her": 487,
      "br": 488,
      "any": 489,
      "come": 490,
      "ink": 491,
      "pa": 492,
      "ish": 493,
      "fter": 494,
      "bu": 495,
      "uddenly": 496,
      "ol": 497,
      "toy": 498,
      "house": 499,
      "how": 500,
      "never": 501,
      "show": 502,
      "Jack": 503,
      "lf": 504,
      "sorry": 505,
      "sw": 506,
      "led": 507,
      "ist": 508,
      "rd": 509,
      "Every": 510,
      "hand": 511,
      "cre": 512,
      "ia": 513,
      "much": 514,
      "dre": 515,
      "careful": 516,
      "able": 517,
      "ven": 518,
      "sun": 519,
      "cle": 520,
      "sk": 521,
      "long": 522,
      "gave": 523,
      "into": 524,
      "water": 525,
      "inside": 526,
      "over": 527,
      "ta": 528,
      "tried": 529,
      "heard": 530,
      "told": 531,
      "box": 532,
      "couldn": 533,
      "cl": 534,
      "this": 535,
      "dy": 536,
      "ump": 537,
      "sp": 538,
      "proud": 539,
      "Let": 540,
      "ear": 541,
      "gre": 542,
      "each": 543,
      "played": 544,
      "tter": 545,
      "bl": 546,
      "eat": 547,
      "love": 548,
      "Suddenly": 549,
      "pick": 550,
      "ion": 551,
      "cause": 552,
      "Then": 553,
      "Mia": 554,
      "pret": 555,
      "off": 556,
      "hugged": 557,
      "unt": 558,
      "nice": 559,
      "just": 560,
      "fly": 561,
      "uc": 562,
      "right": 563,
      "need": 564,
      "because": 565,
      "ile": 566,
      "com": 567,
      "And": 568,
      "That": 569,
      "wat": 570,
      "ct": 571,
      "many": 572,
      "che": 573,
      "From": 574,
      "exp": 575,
      "His": 576,
      "try": 577,
      "pot": 578,
      "flow": 579,
      "oug": 580,
      "small": 581,
      "ough": 582,
      "bear": 583,
      "ine": 584,
      "lad": 585,
      "read": 586,
      "iz": 587,
      "ving": 588,
      "imal": 589,
      "animal": 590,
      "uck": 591,
      "ber": 592,
      "self": 593,
      "learned": 594,
      "until": 595,
      "per": 596,
      "its": 597,
      "rabb": 598,
      "kind": 599,
      "better": 600,
      "call": 601,
      "bea": 602,
      "bed": 603,
      "What": 604,
      "don": 605,
      "best": 606,
      "ket": 607,
      "vent": 608,
      "ass": 609,
      "fast": 610,
      "say": 611,
      "bra": 612,
      "urt": 613,
      "explo": 614,
      "urn": 615,
      "Yes": 616,
      "fi": 617,
      "where": 618,
      "let": 619,
      "gard": 620,
      "jump": 621,
      "garden": 622,
      "beaut": 623,
      "nt": 624,
      "Mommy": 625,
      "ell": 626,
      "even": 627,
      "thanked": 628,
      "yes": 629,
      "safe": 630,
      "sky": 631,
      "under": 632,
      "pt": 633,
      "ace": 634,
      "loud": 635,
      "laughed": 636,
      "fle": 637,
      "ank": 638,
      "sur": 639,
      "iny": 640,
      "rong": 641,
      "Joh": 642,
      "list": 643,
      "Can": 644,
      "John": 645,
      "iful": 646,
      "joy": 647,
      "beautiful": 648,
      "fam": 649,
      "give": 650,
      "lots": 651,
      "ning": 652,
      "ched": 653,
      "animals": 654,
      "ama": 655,
      "stay": 656,
      "won": 657,
      "Th": 658,
      "still": 659,
      "rain": 660,
      "book": 661,
      "ree": 662,
      "bad": 663,
      "both": 664,
      "turn": 665,
      "ble": 666,
      "No": 667,
      "two": 668,
      "fin": 669,
      "Thank": 670,
      "pu": 671,
      "ople": 672,
      "hard": 673,
      "brave": 674,
      "As": 675,
      "lea": 676,
      "angry": 677,
      "lived": 678,
      "hurt": 679,
      "has": 680,
      "should": 681,
      "ished": 682,
      "app": 683,
      "cks": 684,
      "family": 685,
      "walked": 686,
      "ground": 687,
      "ort": 688,
      "Bo": 689,
      "keep": 690,
      "tru": 691,
      "igh": 692,
      "Luc": 693,
      "Dad": 694,
      "people": 695,
      "called": 696,
      "Lucy": 697,
      "surpr": 698,
      "After": 699,
      "con": 700,
      "flew": 701,
      "soon": 702,
      "rm": 703,
      "real": 704,
      "door": 705,
      "kept": 706,
      "share": 707,
      "pic": 708,
      "sl": 709,
      "ook": 710,
      "imp": 711,
      "arm": 712,
      "ting": 713,
      "ane": 714,
      "ised": 715,
      "clos": 716,
      "going": 717,
      "pretty": 718,
      "noise": 719,
      "ste": 720,
      "opened": 721,
      "clean": 722,
      "cry": 723,
      "illy": 724,
      "ummy": 725,
      "cu": 726,
      "mor": 727,
      "explore": 728,
      "place": 729,
      "shiny": 730,
      "lot": 731,
      "advent": 732,
      "feeling": 733,
      "lie": 734,
      "before": 735,
      "wind": 736,
      "doll": 737,
      "dra": 738,
      "colo": 739,
      "€™": 740,
      "ied": 741,
      "also": 742,
      "nodd": 743,
      "nodded": 744,
      "bro": 745,
      "idea": 746,
      "tal": 747,
      "color": 748,
      "nex": 749,
      "les": 750,
      "head": 751,
      "picked": 752,
      "ild": 753,
      "while": 754,
      "less": 755,
      "hear": 756,
      "walking": 757,
      "next": 758,
      "face": 759,
      "ture": 760,
      "fish": 761,
      "thr": 762,
      "Bob": 763,
      "ess": 764,
      "ask": 765,
      "set": 766,
      "smile": 767,
      "ies": 768,
      "work": 769,
      "ak": 770,
      "clim": 771,
      "mber": 772,
      "being": 773,
      "uch": 774,
      "ark": 775,
      "looking": 776,
      "adventure": 777,
      "ever": 778,
      "picture": 779,
      "aybe": 780,
      "walk": 781,
      "dif": 782,
      "iced": 783,
      "hair": 784,
      "food": 785,
      "think": 786,
      "eyes": 787,
      "used": 788,
      "after": 789,
      "listen": 790,
      "Do": 791,
      "member": 792,
      "mon": 793,
      "weet": 794,
      "Sue": 795,
      "great": 796,
      "forest": 797,
      "stopped": 798,
      "vo": 799,
      "wonder": 800,
      "night": 801,
      "shout": 802,
      "repl": 803,
      "wait": 804,
      "year": 805,
      "flowers": 806,
      "blue": 807,
      "ught": 808,
      "ring": 809,
      "Spot": 810,
      "enjoy": 811,
      "slide": 812,
      "ries": 813,
      "ized": 814,
      "import": 815,
      "blo": 816,
      "dis": 817,
      "remember": 818,
      "hands": 819,
      "near": 820,
      "irst": 821,
      "bye": 822,
      "noticed": 823,
      "quick": 824,
      "important": 825,
      "replied": 826,
      "swing": 827,
      "Look": 828,
      "pul": 829,
      "showed": 830,
      "Sarah": 831,
      "okay": 832,
      "This": 833,
      "cook": 834,
      "leave": 835,
      "amaz": 836,
      "lease": 837,
      "sound": 838,
      "watch": 839,
      "tell": 840,
      "gan": 841,
      "sho": 842,
      "everyone": 843,
      "mean": 844,
      "cho": 845,
      "fere": 846,
      "top": 847,
      "boat": 848,
      "ip": 849,
      "differe": 850,
      "bright": 851,
      "llow": 852,
      "cou": 853,
      "voice": 854,
      "cream": 855,
      "cake": 856,
      "rest": 857,
      "sing": 858,
      "stick": 859,
      "been": 860,
      "follow": 861,
      "strong": 862,
      "truck": 863,
      "sn": 864,
      "ner": 865,
      "sure": 866,
      "store": 867,
      "Jane": 868,
      "bow": 869,
      "stand": 870,
      "watched": 871,
      "quickly": 872,
      "different": 873,
      "became": 874,
      "Maybe": 875,
      "tor": 876,
      "goodbye": 877,
      "curi": 878,
      "ward": 879,
      "ung": 880,
      "ila": 881,
      "high": 882,
      "ff": 883,
      "closer": 884,
      "does": 885,
      "mag": 886,
      "bre": 887,
      "warm": 888,
      "laugh": 889,
      "Lila": 890,
      "unny": 891,
      "open": 892,
      "ond": 893,
      "three": 894,
      "ance": 895,
      "oft": 896,
      "curious": 897,
      "mis": 898,
      "fav": 899,
      "pie": 900,
      "rabbit": 901,
      "ster": 902,
      "bit": 903,
      "andma": 904,
      "tw": 905,
      "Joe": 906,
      "isy": 907,
      "dress": 908,
      "ph": 909,
      "first": 910,
      "grabb": 911,
      "ready": 912,
      "anymore": 913,
      "leep": 914,
      "times": 915,
      "squ": 916,
      "pain": 917,
      "butter": 918,
      "kit": 919,
      "Everyone": 920,
      "grabbed": 921,
      "only": 922,
      "ached": 923,
      "kid": 924,
      "med": 925,
      "Tommy": 926,
      "ered": 927,
      "sand": 928,
      "ired": 929,
      "Don": 930,
      "flo": 931,
      "yel": 932,
      "fell": 933,
      "tr": 934,
      "jumped": 935,
      "rock": 936,
      "In": 937,
      "ft": 938,
      "flower": 939,
      "table": 940,
      "light": 941,
      "helped": 942,
      "chen": 943,
      "kitchen": 944,
      "deli": 945,
      "Hel": 946,
      "birds": 947,
      "fire": 948,
      "cr": 949,
      "glad": 950,
      "tow": 951,
      "stop": 952,
      "happened": 953,
      "air": 954,
      "pare": 955,
      "dro": 956,
      "cont": 957,
      "draw": 958,
      "ash": 959,
      "grass": 960,
      "shouted": 961,
      "sees": 962,
      "key": 963,
      "realized": 964,
      "cut": 965,
      "cket": 966,
      "bunny": 967,
      "yummy": 968,
      "din": 969,
      "having": 970,
      "sweet": 971,
      "prin": 972,
      "cra": 973,
      "story": 974,
      "bor": 975,
      "through": 976,
      "reached": 977,
      "bal": 978,
      "mum": 979,
      "coming": 980,
      "shed": 981,
      "lady": 982,
      "favor": 983,
      "que": 984,
      "fl": 985,
      "piece": 986,
      "favorite": 987,
      "game": 988,
      "world": 989,
      "Wh": 990,
      "himself": 991,
      "ary": 992,
      "Da": 993,
      "magic": 994,
      "really": 995,
      "rel": 996,
      "paper": 997,
      "kids": 998,
      "Now": 999,
      "looks": 1000,
      "why": 1001,
      "zy": 1002,
      "began": 1003,
      "done": 1004,
      "ins": 1005,
      "olly": 1006,
      "soft": 1007,
      "pond": 1008,
      "tra": 1009,
      "nts": 1010,
      "name": 1011,
      "ike": 1012,
      "fro": 1013,
      "age": 1014,
      "ped": 1015,
      "pretend": 1016,
      "cold": 1017,
      "brother": 1018,
      "making": 1019,
      "move": 1020,
      "waved": 1021,
      "wel": 1022,
      "ater": 1023,
      "fill": 1024,
      "ons": 1025,
      "gu": 1026,
      "fix": 1027,
      "worry": 1028,
      "mouse": 1029,
      "thank": 1030,
      "parents": 1031,
      "funny": 1032,
      "col": 1033,
      "cor": 1034,
      "tired": 1035,
      "duck": 1036,
      "cked": 1037,
      "oney": 1038,
      "Wow": 1039,
      "prom": 1040,
      "cars": 1041,
      "blocks": 1042,
      "hold": 1043,
      "There": 1044,
      "seen": 1045,
      "bar": 1046,
      "river": 1047,
      "another": 1048,
      "cool": 1049,
      "\".": 1050,
      "Fin": 1051,
      "pro": 1052,
      "cried": 1053,
      "lesson": 1054,
      "doing": 1055,
      "ba": 1056,
      "ds": 1057,
      "Daisy": 1058,
      "bag": 1059,
      "catch": 1060,
      "stre": 1061,
      "ppy": 1062,
      "green": 1063,
      "hopped": 1064,
      "touch": 1065,
      "mess": 1066,
      "ple": 1067,
      "close": 1068,
      "wished": 1069,
      "andy": 1070,
      "aby": 1071,
      "wood": 1072,
      "surprise": 1073,
      "turned": 1074,
      "years": 1075,
      "sat": 1076,
      "running": 1077,
      "uff": 1078,
      "ger": 1079,
      "farm": 1080,
      "hind": 1081,
      "anc": 1082,
      "Sally": 1083,
      "full": 1084,
      "ation": 1085,
      "pet": 1086,
      "ign": 1087,
      "floor": 1088,
      "wear": 1089,
      "climb": 1090,
      "remembered": 1091,
      "behind": 1092,
      "window": 1093,
      "dark": 1094,
      "trees": 1095,
      "worked": 1096,
      "cast": 1097,
      "frog": 1098,
      "happily": 1099,
      "surprised": 1100,
      "To": 1101,
      "arri": 1102,
      "yellow": 1103,
      "cious": 1104,
      "sleep": 1105,
      "Jim": 1106,
      "Em": 1107,
      "lost": 1108,
      "Benny": 1109,
      "yard": 1110,
      "cla": 1111,
      "hole": 1112,
      "swim": 1113,
      "likes": 1114,
      "needed": 1115,
      "Hello": 1116,
      "butterfly": 1117,
      "wrong": 1118,
      "carefully": 1119,
      "held": 1120,
      "far": 1121,
      "left": 1122,
      "At": 1123,
      "dream": 1124,
      "Billy": 1125,
      "slow": 1126,
      "buy": 1127,
      "reed": 1128,
      "fair": 1129,
      "chil": 1130,
      "stran": 1131,
      "tri": 1132,
      "hung": 1133,
      "dren": 1134,
      "enjoyed": 1135,
      "race": 1136,
      "Finally": 1137,
      "Molly": 1138,
      "spot": 1139,
      "children": 1140,
      "delicious": 1141,
      "mou": 1142,
      "hid": 1143,
      "bug": 1144,
      "anything": 1145,
      "contin": 1146,
      "oken": 1147,
      "mar": 1148,
      "friendly": 1149,
      "finished": 1150,
      "followed": 1151,
      "forgot": 1152,
      "please": 1153,
      "herself": 1154,
      "oo": 1155,
      "baby": 1156,
      "dir": 1157,
      "understand": 1158,
      "broken": 1159,
      "em": 1160,
      "ued": 1161,
      "arrived": 1162,
      "else": 1163,
      "art": 1164,
      "hot": 1165,
      "agreed": 1166,
      "snow": 1167,
      "gl": 1168,
      "might": 1169,
      "ross": 1170,
      "Amy": 1171,
      "Jen": 1172,
      "bot": 1173,
      "sit": 1174,
      "wonderful": 1175,
      "tall": 1176,
      "cess": 1177,
      "colors": 1178,
      "most": 1179,
      "ield": 1180,
      "spo": 1181,
      "vis": 1182,
      "tight": 1183,
      "irrel": 1184,
      "gent": 1185,
      "erous": 1186,
      "land": 1187,
      "ather": 1188,
      "filled": 1189,
      "ens": 1190,
      "books": 1191,
      "fr": 1192,
      "wards": 1193,
      "ings": 1194,
      "hill": 1195,
      "build": 1196,
      "ined": 1197,
      "ient": 1198,
      "Why": 1199,
      "continued": 1200,
      "someone": 1201,
      "castle": 1202,
      "creat": 1203,
      "wants": 1204,
      "gone": 1205,
      "squirrel": 1206,
      "song": 1207,
      "fru": 1208,
      "pat": 1209,
      "enough": 1210,
      "lion": 1211,
      "row": 1212,
      "mat": 1213,
      "leaves": 1214,
      "Go": 1215,
      "mother": 1216,
      "cookies": 1217,
      "getting": 1218,
      "pink": 1219,
      "fall": 1220,
      "asure": 1221,
      "stayed": 1222,
      "je": 1223,
      "OK": 1224,
      "dr": 1225,
      "ze": 1226,
      "fight": 1227,
      "sometimes": 1228,
      "break": 1229,
      "ves": 1230,
      "beach": 1231,
      "morning": 1232,
      "whe": 1233,
      "finally": 1234,
      "ence": 1235,
      "scary": 1236,
      "tast": 1237,
      "hungry": 1238,
      "Gr": 1239,
      "Come": 1240,
      "grandma": 1241,
      "others": 1242,
      "gon": 1243,
      "moment": 1244,
      "poin": 1245,
      "pack": 1246,
      "few": 1247,
      "trying": 1248,
      "cha": 1249,
      "dinner": 1250,
      "ju": 1251,
      "amazing": 1252,
      "asks": 1253,
      "alone": 1254,
      "Jill": 1255,
      "talk": 1256,
      "pes": 1257,
      "plain": 1258,
      "tail": 1259,
      "pictures": 1260,
      "ious": 1261,
      "Be": 1262,
      "mus": 1263,
      "thes": 1264,
      "bike": 1265,
      "daddy": 1266,
      "pulled": 1267,
      "puppy": 1268,
      "ride": 1269,
      "cover": 1270,
      "clothes": 1271,
      "plan": 1272,
      "roll": 1273,
      "fur": 1274,
      "icy": 1275,
      "brought": 1276,
      "treat": 1277,
      "listened": 1278,
      "kay": 1279,
      "ton": 1280,
      "smiles": 1281,
      "makes": 1282,
      "climbed": 1283,
      "fect": 1284,
      "wet": 1285,
      "Daddy": 1286,
      "dang": 1287,
      "spl": 1288,
      "wasn": 1289,
      "ot": 1290,
      "appear": 1291,
      "wall": 1292,
      "ballo": 1293,
      "everything": 1294,
      "af": 1295,
      "train": 1296,
      "deep": 1297,
      "strange": 1298,
      "grow": 1299,
      "tle": 1300,
      "perfect": 1301,
      "pen": 1302,
      "oup": 1303,
      "pping": 1304,
      "nap": 1305,
      "met": 1306,
      "white": 1307,
      "Oh": 1308,
      "sear": 1309,
      "ated": 1310,
      "mi": 1311,
      "spark": 1312,
      "av": 1313,
      "hide": 1314,
      "Some": 1315,
      "bus": 1316,
      "Soon": 1317,
      "party": 1318,
      "waited": 1319,
      "danc": 1320,
      "uffy": 1321,
      "woods": 1322,
      "ames": 1323,
      "gi": 1324,
      "hor": 1325,
      "cloud": 1326,
      "cup": 1327,
      "ses": 1328,
      "amazed": 1329,
      "sail": 1330,
      "ange": 1331,
      "music": 1332,
      "thy": 1333,
      "shared": 1334,
      "towards": 1335,
      "runs": 1336,
      "ucky": 1337,
      "belie": 1338,
      "field": 1339,
      "teddy": 1340,
      "Mama": 1341,
      "whis": 1342,
      "ose": 1343,
      "fox": 1344,
      "silly": 1345,
      "pers": 1346,
      "moral": 1347,
      "All": 1348,
      "colorful": 1349,
      "miss": 1350,
      "lice": 1351,
      "sis": 1352,
      "owner": 1353,
      "monster": 1354,
      "flying": 1355,
      "bran": 1356,
      "ually": 1357,
      "hes": 1358,
      "ctor": 1359,
      "pur": 1360,
      "mind": 1361,
      "answ": 1362,
      "money": 1363,
      "iss": 1364,
      "lake": 1365,
      "ment": 1366,
      "visit": 1367,
      "bath": 1368,
      "job": 1369,
      "living": 1370,
      "Okay": 1371,
      "thinks": 1372,
      "zz": 1373,
      "sister": 1374,
      "Sure": 1375,
      "pull": 1376,
      "ps": 1377,
      "dance": 1378,
      "pass": 1379,
      "thre": 1380,
      "ises": 1381,
      "ich": 1382,
      "Just": 1383,
      "must": 1384,
      "iet": 1385,
      "promised": 1386,
      "ateful": 1387,
      "grateful": 1388,
      "chair": 1389,
      "bigger": 1390,
      "slowly": 1391,
      "Mary": 1392,
      "pieces": 1393,
      "gs": 1394,
      "worried": 1395,
      "such": 1396,
      "quiet": 1397,
      "Mr": 1398,
      "sign": 1399,
      "explain": 1400,
      "plant": 1401,
      "broke": 1402,
      "dangerous": 1403,
      "scream": 1404,
      "gif": 1405,
      "candy": 1406,
      "board": 1407,
      "dri": 1408,
      "dry": 1409,
      "Mum": 1410,
      "Hi": 1411,
      "words": 1412,
      "snack": 1413,
      "da": 1414,
      "magical": 1415,
      "win": 1416,
      "helping": 1417,
      "faster": 1418,
      "gra": 1419,
      "reach": 1420,
      "threw": 1421,
      "doctor": 1422,
      "smel": 1423,
      "blan": 1424,
      "smart": 1425,
      "min": 1426,
      "join": 1427,
      "ub": 1428,
      "stepped": 1429,
      "ourse": 1430,
      "igg": 1431,
      "mouth": 1432,
      "start": 1433,
      "black": 1434,
      "bite": 1435,
      "hig": 1436,
      "believe": 1437,
      "swa": 1438,
      "farmer": 1439,
      "mix": 1440,
      "cray": 1441,
      "rot": 1442,
      "ng": 1443,
      "crying": 1444,
      "wouldn": 1445,
      "Please": 1446,
      "ele": 1447,
      "heav": 1448,
      "stu": 1449,
      "appeared": 1450,
      "treasure": 1451,
      "dirty": 1452,
      "twins": 1453,
      "dolls": 1454,
      "everywhere": 1455,
      "Jimmy": 1456,
      "closed": 1457,
      "across": 1458,
      "dragon": 1459,
      "sy": 1460,
      "stuck": 1461,
      "same": 1462,
      "swam": 1463,
      "iting": 1464,
      "wr": 1465,
      "brown": 1466,
      "chool": 1467,
      "Grandma": 1468,
      "tower": 1469,
      "teac": 1470,
      "har": 1471,
      "paint": 1472,
      "press": 1473,
      "bowl": 1474,
      "ident": 1475,
      "school": 1476,
      "heal": 1477,
      "bas": 1478,
      "sc": 1479,
      "shar": 1480,
      "princess": 1481,
      "higher": 1482,
      "ventually": 1483,
      "suddenly": 1484,
      "town": 1485,
      "unch": 1486,
      "hoped": 1487,
      "pow": 1488,
      "clapped": 1489,
      "fairy": 1490,
      "heavy": 1491,
      "course": 1492,
      "feels": 1493,
      "Emma": 1494,
      "eating": 1495,
      "Sammy": 1496,
      "games": 1497,
      "plane": 1498,
      "stood": 1499,
      "swings": 1500,
      "bee": 1501,
      "without": 1502,
      "neigh": 1503,
      "drove": 1504,
      "shine": 1505,
      "ben": 1506,
      "ches": 1507,
      "ntain": 1508,
      "free": 1509,
      "balloon": 1510,
      "teacher": 1511,
      "gentle": 1512,
      "basket": 1513,
      "wish": 1514,
      "button": 1515,
      "kiss": 1516,
      "kno": 1517,
      "val": 1518,
      "ap": 1519,
      "str": 1520,
      "pushed": 1521,
      "ible": 1522,
      "welcome": 1523,
      "ek": 1524,
      "spr": 1525,
      "comfor": 1526,
      "onely": 1527,
      "takes": 1528,
      "today": 1529,
      "blanket": 1530,
      "round": 1531,
      "Inside": 1532,
      "ire": 1533,
      "lonely": 1534,
      "cheered": 1535,
      "along": 1536,
      "Fl": 1537,
      "stead": 1538,
      "wise": 1539,
      "forget": 1540,
      "phone": 1541,
      "moved": 1542,
      "El": 1543,
      "jour": 1544,
      "cident": 1545,
      "explained": 1546,
      "late": 1547,
      "longer": 1548,
      "trou": 1549,
      "Their": 1550,
      "Le": 1551,
      "drink": 1552,
      "hugs": 1553,
      "child": 1554,
      "happen": 1555,
      "sang": 1556,
      "apple": 1557,
      "noises": 1558,
      "turns": 1559,
      "throw": 1560,
      "jar": 1561,
      "nee": 1562,
      "fence": 1563,
      "shoes": 1564,
      "upset": 1565,
      "though": 1566,
      "ours": 1567,
      "Fluffy": 1568,
      "neck": 1569,
      "oun": 1570,
      "ney": 1571,
      "accident": 1572,
      "heart": 1573,
      "belong": 1574,
      "well": 1575,
      "itting": 1576,
      "mine": 1577,
      "woke": 1578,
      "monkey": 1579,
      "phant": 1580,
      "wings": 1581,
      "sea": 1582,
      "owl": 1583,
      "stories": 1584,
      "bring": 1585,
      "shook": 1586,
      "body": 1587,
      "exploring": 1588,
      "del": 1589,
      "singing": 1590,
      "dist": 1591,
      "sent": 1592,
      "young": 1593,
      "My": 1594,
      "ling": 1595,
      "pol": 1596,
      "stars": 1597,
      "street": 1598,
      "coat": 1599,
      "fing": 1600,
      "lunch": 1601,
      "add": 1602,
      "elephant": 1603,
      "adventures": 1604,
      "pig": 1605,
      "backyard": 1606,
      "bench": 1607,
      "fused": 1608,
      "secre": 1609,
      "ier": 1610,
      "smell": 1611,
      "relie": 1612,
      "nearby": 1613,
      "des": 1614,
      "Pe": 1615,
      "ions": 1616,
      "stone": 1617,
      "ughty": 1618,
      "cal": 1619,
      "umb": 1620,
      "seemed": 1621,
      "orange": 1622,
      "naughty": 1623,
      "driver": 1624,
      "sco": 1625,
      "fit": 1626,
      "nest": 1627,
      "ship": 1628,
      "part": 1629,
      "sick": 1630,
      "soup": 1631,
      "hur": 1632,
      "hit": 1633,
      "tiny": 1634,
      "pocket": 1635,
      "sounds": 1636,
      "oom": 1637,
      "rainbow": 1638,
      "purple": 1639,
      "ughter": 1640,
      "itch": 1641,
      "caught": 1642,
      "comes": 1643,
      "daughter": 1644,
      "hello": 1645,
      "att": 1646,
      "shop": 1647,
      "Later": 1648,
      "cir": 1649,
      "wondered": 1650,
      "mil": 1651,
      "holding": 1652,
      "kite": 1653,
      "ars": 1654,
      "dropped": 1655,
      "ull": 1656,
      "branch": 1657,
      "taking": 1658,
      "sug": 1659,
      "thday": 1660,
      "shapes": 1661,
      "raid": 1662,
      "ming": 1663,
      "hu": 1664,
      "afraid": 1665,
      "ser": 1666,
      "chas": 1667,
      "band": 1668,
      "uni": 1669,
      "pra": 1670,
      "juice": 1671,
      "arms": 1672,
      "huge": 1673,
      "count": 1674,
      "mer": 1675,
      "How": 1676,
      "boun": 1677,
      "pper": 1678,
      "peace": 1679,
      "busy": 1680,
      "brea": 1681,
      "cow": 1682,
      "rocks": 1683,
      "orn": 1684,
      "relieved": 1685,
      "Of": 1686,
      "Tweet": 1687,
      "bread": 1688,
      "push": 1689,
      "sitting": 1690,
      "nothing": 1691,
      "amp": 1692,
      "mach": 1693,
      "touc": 1694,
      "laughing": 1695,
      "quest": 1696,
      "erful": 1697,
      "past": 1698,
      "With": 1699,
      "nose": 1700,
      "ining": 1701,
      "cute": 1702,
      "shell": 1703,
      "Jenny": 1704,
      "gest": 1705,
      "Good": 1706,
      "terest": 1707,
      "ese": 1708,
      "onto": 1709,
      "mail": 1710,
      "interest": 1711,
      "promise": 1712,
      "idge": 1713,
      "birthday": 1714,
      "imag": 1715,
      "secret": 1716,
      "exciting": 1717,
      "bucket": 1718,
      "Hey": 1719,
      "days": 1720,
      "coun": 1721,
      "act": 1722,
      "grab": 1723,
      "covered": 1724,
      "sunny": 1725,
      "gift": 1726,
      "di": 1727,
      "ness": 1728,
      "creature": 1729,
      "forever": 1730,
      "sandw": 1731,
      "wra": 1732,
      "talked": 1733,
      "life": 1734,
      "bush": 1735,
      "patient": 1736,
      "carry": 1737,
      "honey": 1738,
      "ced": 1739,
      "touched": 1740,
      "su": 1741,
      "loves": 1742,
      "net": 1743,
      "suc": 1744,
      "hope": 1745,
      "word": 1746,
      "eas": 1747,
      "Emily": 1748,
      "ian": 1749,
      "pil": 1750,
      "zoo": 1751,
      "milk": 1752,
      "eag": 1753,
      "vel": 1754,
      "cozy": 1755,
      "gged": 1756,
      "live": 1757,
      "crayons": 1758,
      "lucky": 1759,
      "inv": 1760,
      "snake": 1761,
      "gg": 1762,
      "smiling": 1763,
      "road": 1764,
      "gives": 1765,
      "instead": 1766,
      "neighbor": 1767,
      "Where": 1768,
      "sli": 1769,
      "sunshine": 1770,
      "colle": 1771,
      "kick": 1772,
      "watching": 1773,
      "craw": 1774,
      "cheese": 1775,
      "journey": 1776,
      "zoom": 1777,
      "pointed": 1778,
      "ider": 1779,
      "vill": 1780,
      "gather": 1781,
      "pile": 1782,
      "nic": 1783,
      "shes": 1784,
      "meet": 1785,
      "swimming": 1786,
      "gen": 1787,
      "cave": 1788,
      "pudd": 1789,
      "anyone": 1790,
      "circle": 1791,
      "interesting": 1792,
      "wom": 1793,
      "puts": 1794,
      "woman": 1795,
      "wand": 1796,
      "accidentally": 1797,
      "apples": 1798,
      "roar": 1799,
      "spin": 1800,
      "ast": 1801,
      "seat": 1802,
      "Are": 1803,
      "tasty": 1804,
      "ade": 1805,
      "mud": 1806,
      "bottle": 1807,
      "storm": 1808,
      "later": 1809,
      "tea": 1810,
      "bought": 1811,
      "rope": 1812,
      "ize": 1813,
      "trouble": 1814,
      "Ted": 1815,
      "kitt": 1816,
      "ert": 1817,
      "clouds": 1818,
      "person": 1819,
      "ye": 1820,
      "letter": 1821,
      "myster": 1822,
      "wide": 1823,
      "œI": 1824,
      "wheel": 1825,
      "gigg": 1826,
      "worm": 1827,
      "bru": 1828,
      "blem": 1829,
      "problem": 1830,
      "spoon": 1831,
      "minut": 1832,
      "sharp": 1833,
      "healthy": 1834,
      "irt": 1835,
      "ducks": 1836,
      "path": 1837,
      "organ": 1838,
      "ont": 1839,
      "respe": 1840,
      "shelf": 1841,
      "front": 1842,
      "matter": 1843,
      "screamed": 1844,
      "searched": 1845,
      "pract": 1846,
      "smelled": 1847,
      "feather": 1848,
      "giant": 1849,
      "clever": 1850,
      "rolled": 1851,
      "shining": 1852,
      "danced": 1853,
      "spotted": 1854,
      "answer": 1855,
      "wash": 1856,
      "present": 1857,
      "ittens": 1858,
      "dest": 1859,
      "ugg": 1860,
      "lovely": 1861,
      "thin": 1862,
      "teach": 1863,
      "tool": 1864,
      "splash": 1865,
      "lay": 1866,
      "os": 1867,
      "hop": 1868,
      "Fred": 1869,
      "prote": 1870,
      "tun": 1871,
      "war": 1872,
      "search": 1873,
      "ones": 1874,
      "orm": 1875,
      "comfortable": 1876,
      "grand": 1877,
      "drive": 1878,
      "pill": 1879,
      "rude": 1880,
      "Together": 1881,
      "lock": 1882,
      "last": 1883,
      "berries": 1884,
      "Jake": 1885,
      "corner": 1886,
      "swe": 1887,
      "va": 1888,
      "pour": 1889,
      "respect": 1890,
      "spider": 1891,
      "cean": 1892,
      "ocean": 1893,
      "puzz": 1894,
      "which": 1895,
      "tasted": 1896,
      "cookie": 1897,
      "Sometimes": 1898,
      "pan": 1899,
      "horse": 1900,
      "snowman": 1901,
      "fruit": 1902,
      "ned": 1903,
      "whole": 1904,
      "slid": 1905,
      "wearing": 1906,
      "gently": 1907,
      "peaceful": 1908,
      "rich": 1909,
      "corn": 1910,
      "impress": 1911,
      "mountain": 1912,
      "dirt": 1913,
      "log": 1914,
      "spent": 1915,
      "cer": 1916,
      "asleep": 1917,
      "Mummy": 1918,
      "places": 1919,
      "oven": 1920,
      "confused": 1921,
      "wild": 1922,
      "calm": 1923,
      "tee": 1924,
      "picnic": 1925,
      "ity": 1926,
      "village": 1927,
      "tries": 1928,
      "card": 1929,
      "rank": 1930,
      "goes": 1931,
      "fli": 1932,
      "seek": 1933,
      "If": 1934,
      "coin": 1935,
      "eager": 1936,
      "teeth": 1937,
      "ipped": 1938,
      "bel": 1939,
      "Here": 1940,
      "forgive": 1941,
      "faces": 1942,
      "hang": 1943,
      "step": 1944,
      "talking": 1945,
      "helpful": 1946,
      "ladder": 1947,
      "shr": 1948,
      "string": 1949,
      "Little": 1950,
      "write": 1951,
      "feet": 1952,
      "kets": 1953,
      "lder": 1954,
      "uce": 1955,
      "rag": 1956,
      "eventually": 1957,
      "foot": 1958,
      "bell": 1959,
      "pop": 1960,
      "treats": 1961,
      "den": 1962,
      "cage": 1963,
      "furry": 1964,
      "shad": 1965,
      "ased": 1966,
      "spit": 1967,
      "machine": 1968,
      "finish": 1969,
      "shy": 1970,
      "isa": 1971,
      "delight": 1972,
      "Mittens": 1973,
      "cord": 1974,
      "selfish": 1975,
      "lace": 1976,
      "tomor": 1977,
      "tomorrow": 1978,
      "wave": 1979,
      "ten": 1980,
      "lar": 1981,
      "mir": 1982,
      "ob": 1983,
      "ife": 1984,
      "mel": 1985,
      "bubb": 1986,
      "rubb": 1987,
      "Rex": 1988,
      "whenever": 1989,
      "ighed": 1990,
      "pool": 1991,
      "wore": 1992,
      "Peter": 1993,
      "ail": 1994,
      "asha": 1995,
      "blew": 1996,
      "Lisa": 1997,
      "umpy": 1998,
      "leaf": 1999,
      "hiding": 2000,
      "pretended": 2001,
      "remind": 2002,
      "joke": 2003,
      "chased": 2004,
      "tie": 2005,
      "knee": 2006,
      "tid": 2007,
      "waiting": 2008,
      "crab": 2009,
      "res": 2010,
      "barked": 2011,
      "sol": 2012,
      "Alice": 2013,
      "Who": 2014,
      "vie": 2015,
      "cannot": 2016,
      "hum": 2017,
      "stir": 2018,
      "stret": 2019,
      "pread": 2020,
      "trip": 2021,
      "necklace": 2022,
      "spread": 2023,
      "umber": 2024,
      "Ann": 2025,
      "Stop": 2026,
      "cele": 2027,
      "smoo": 2028,
      "puddle": 2029,
      "collect": 2030,
      "cloth": 2031,
      "bugs": 2032,
      "clear": 2033,
      "building": 2034,
      "smooth": 2035,
      "songs": 2036,
      "lves": 2037,
      "ult": 2038,
      "sharing": 2039,
      "sack": 2040,
      "taste": 2041,
      "izz": 2042,
      "Re": 2043,
      "shake": 2044,
      "plate": 2045,
      "protect": 2046,
      "Johnny": 2047,
      "barr": 2048,
      "couch": 2049,
      "cross": 2050,
      "tu": 2051,
      "cop": 2052,
      "getable": 2053,
      "embarr": 2054,
      "maybe": 2055,
      "prince": 2056,
      "fixed": 2057,
      "large": 2058,
      "stair": 2059,
      "vegetable": 2060,
      "fighting": 2061,
      "missed": 2062,
      "paw": 2063,
      "ungle": 2064,
      "tidy": 2065,
      "embarrass": 2066,
      "adow": 2067,
      "meadow": 2068,
      "celebr": 2069,
      "jungle": 2070,
      "rad": 2071,
      "oin": 2072,
      "osa": 2073,
      "colour": 2074,
      "landed": 2075,
      "robot": 2076,
      "Everywhere": 2077,
      "creative": 2078,
      "Sus": 2079,
      "forward": 2080,
      "hears": 2081,
      "grew": 2082,
      "cted": 2083,
      "TV": 2084,
      "emp": 2085,
      "Sor": 2086,
      "empty": 2087,
      "appoin": 2088,
      "sque": 2089,
      "chick": 2090,
      "hero": 2091,
      "carrot": 2092,
      "Sorry": 2093,
      "jumping": 2094,
      "test": 2095,
      "ee": 2096,
      "ashamed": 2097,
      "chocol": 2098,
      "nut": 2099,
      "cape": 2100,
      "meant": 2101,
      "line": 2102,
      "shirt": 2103,
      "decor": 2104,
      "rots": 2105,
      "Help": 2106,
      "legs": 2107,
      "hidden": 2108,
      "trust": 2109,
      "Pa": 2110,
      "polite": 2111,
      "success": 2112,
      "police": 2113,
      "osaur": 2114,
      "ban": 2115,
      "knocked": 2116,
      "scre": 2117,
      "disappoin": 2118,
      "breath": 2119,
      "bat": 2120,
      "yelled": 2121,
      "ending": 2122,
      "dinosaur": 2123,
      "sour": 2124,
      "Teddy": 2125,
      "blow": 2126,
      "almost": 2127,
      "Your": 2128,
      "sandwich": 2129,
      "embarrassed": 2130,
      "coura": 2131,
      "sup": 2132,
      "deer": 2133,
      "understood": 2134,
      "finger": 2135,
      "hours": 2136,
      "elly": 2137,
      "sticks": 2138,
      "stra": 2139,
      "carrots": 2140,
      "mysterious": 2141,
      "gray": 2142,
      "carried": 2143,
      "hospit": 2144,
      "ina": 2145,
      "hospital": 2146,
      "hone": 2147,
      "vous": 2148,
      "lemon": 2149,
      "banan": 2150,
      "deter": 2151,
      "tells": 2152,
      "tightly": 2153,
      "kin": 2154,
      "chocolate": 2155,
      "ants": 2156,
      "nods": 2157,
      "Even": 2158,
      "whistle": 2159,
      "wolf": 2160,
      "frustr": 2161,
      "Me": 2162,
      "gun": 2163,
      "these": 2164,
      "minutes": 2165,
      "bored": 2166,
      "While": 2167,
      "gold": 2168,
      "honest": 2169,
      "jewel": 2170,
      "bedroom": 2171,
      "gas": 2172,
      "sighed": 2173,
      "Dan": 2174,
      "chew": 2175,
      "standing": 2176,
      "waves": 2177,
      "sage": 2178,
      "brush": 2179,
      "disappointed": 2180,
      "fear": 2181,
      "kitten": 2182,
      "returned": 2183,
      "Give": 2184,
      "gy": 2185,
      "scarf": 2186,
      "Bl": 2187,
      "thankful": 2188,
      "ella": 2189,
      "snacks": 2190,
      "Mark": 2191,
      "van": 2192,
      "group": 2193,
      "flies": 2194,
      "spray": 2195,
      "knowing": 2196,
      "drew": 2197,
      "burn": 2198,
      "og": 2199,
      "Today": 2200,
      "berry": 2201,
      "pay": 2202,
      "generous": 2203,
      "glow": 2204,
      "seed": 2205,
      "taught": 2206,
      "messy": 2207,
      "sleepy": 2208,
      "stairs": 2209,
      "fig": 2210,
      "fla": 2211,
      "nervous": 2212,
      "sparkly": 2213,
      "save": 2214,
      "frustrated": 2215,
      "Kitt": 2216,
      "pri": 2217,
      "grumpy": 2218,
      "Leo": 2219,
      "passed": 2220,
      "ird": 2221,
      "Kitty": 2222,
      "bul": 2223,
      "vegetables": 2224,
      "son": 2225,
      "ony": 2226,
      "yourself": 2227,
      "puzzle": 2228,
      "lown": 2229,
      "balls": 2230,
      "easy": 2231,
      "spa": 2232,
      "plants": 2233,
      "sheep": 2234,
      "whisper": 2235,
      "clown": 2236,
      "moon": 2237,
      "law": 2238,
      "itter": 2239,
      "answered": 2240,
      "spla": 2241,
      "kissed": 2242,
      "packed": 2243,
      "dle": 2244,
      "tears": 2245,
      "gets": 2246,
      "excite": 2247,
      "match": 2248,
      "drawing": 2249,
      "spicy": 2250,
      "cries": 2251,
      "erpill": 2252,
      "feed": 2253,
      "caterpill": 2254,
      "izza": 2255,
      "ken": 2256,
      "fruits": 2257,
      "spoil": 2258,
      "sold": 2259,
      "Susie": 2260,
      "See": 2261,
      "espe": 2262,
      "glass": 2263,
      "Ch": 2264,
      "gathered": 2265,
      "lit": 2266,
      "form": 2267,
      "medic": 2268,
      "hopping": 2269,
      "often": 2270,
      "block": 2271,
      "pillow": 2272,
      "tent": 2273,
      "bridge": 2274,
      "true": 2275,
      "Blue": 2276,
      "week": 2277,
      "ugly": 2278,
      "tig": 2279,
      "working": 2280,
      "pir": 2281,
      "cher": 2282,
      "boring": 2283,
      "excitement": 2284,
      "pizza": 2285,
      "saved": 2286,
      "twirl": 2287,
      "flag": 2288,
      "medicine": 2289,
      "picks": 2290,
      "mark": 2291,
      "yog": 2292,
      "issor": 2293,
      "jelly": 2294,
      "iddle": 2295,
      "Ellie": 2296,
      "cand": 2297,
      "taken": 2298,
      "ror": 2299,
      "shore": 2300,
      "fre": 2301,
      "powerful": 2302,
      "cially": 2303,
      "especially": 2304,
      "issors": 2305,
      "mined": 2306,
      "ensive": 2307,
      "cri": 2308,
      "pray": 2309,
      "cy": 2310,
      "asking": 2311,
      "determined": 2312,
      "mummy": 2313,
      "expensive": 2314,
      "space": 2315,
      "inc": 2316,
      "bark": 2317,
      "lying": 2318,
      "note": 2319,
      "keeper": 2320,
      "ancy": 2321,
      "caterpillar": 2322,
      "crown": 2323,
      "mistake": 2324,
      "pair": 2325,
      "class": 2326,
      "Eventually": 2327,
      "au": 2328,
      "moms": 2329,
      "closet": 2330,
      "izzy": 2331,
      "scissors": 2332,
      "calling": 2333,
      "lly": 2334,
      "allow": 2335,
      "hose": 2336,
      "lid": 2337,
      "known": 2338,
      "wagged": 2339,
      "distance": 2340,
      "middle": 2341,
      "pin": 2342,
      "tory": 2343,
      "poor": 2344,
      "lif": 2345,
      "horn": 2346,
      "become": 2347,
      "father": 2348,
      "Bobby": 2349,
      "bone": 2350,
      "wake": 2351,
      "mirror": 2352,
      "Pet": 2353,
      "walks": 2354,
      "ignor": 2355,
      "gate": 2356,
      "kn": 2357,
      "tape": 2358,
      "ator": 2359,
      "sight": 2360,
      "Lo": 2361,
      "incred": 2362,
      "exam": 2363,
      "ual": 2364,
      "nel": 2365,
      "smelly": 2366,
      "suggest": 2367,
      "lead": 2368,
      "licked": 2369,
      "change": 2370,
      "vi": 2371,
      "painting": 2372,
      "sugar": 2373,
      "Pete": 2374,
      "ham": 2375,
      "illed": 2376,
      "fancy": 2377,
      "towel": 2378,
      "drum": 2379,
      "elder": 2380,
      "lose": 2381,
      "weak": 2382,
      "toes": 2383,
      "pleased": 2384,
      "moving": 2385,
      "usual": 2386,
      "giggled": 2387,
      "rid": 2388,
      "aged": 2389,
      "dogs": 2390,
      "soar": 2391,
      "bake": 2392,
      "mic": 2393,
      "incredible": 2394,
      "skipped": 2395,
      "Ella": 2396,
      "feathers": 2397,
      "wip": 2398,
      "iness": 2399,
      "yours": 2400,
      "vide": 2401,
      "disappeared": 2402,
      "rela": 2403,
      "playground": 2404,
      "Bobo": 2405,
      "relax": 2406,
      "Bella": 2407,
      "dancing": 2408,
      "chest": 2409,
      "boss": 2410,
      "rote": 2411,
      "leg": 2412,
      "glue": 2413,
      "wrote": 2414,
      "sweetie": 2415,
      "micro": 2416,
      "End": 2417,
      "branches": 2418,
      "elderly": 2419,
      "boo": 2420,
      "tub": 2421,
      "ately": 2422,
      "nod": 2423,
      "stuff": 2424,
      "stones": 2425,
      "drank": 2426,
      "knight": 2427,
      "fold": 2428,
      "lazy": 2429,
      "ggs": 2430,
      "vase": 2431,
      "case": 2432,
      "eggs": 2433,
      "batter": 2434,
      "ero": 2435,
      "measure": 2436,
      "rocket": 2437,
      "Well": 2438,
      "splashed": 2439,
      "guess": 2440,
      "fil": 2441,
      "swan": 2442,
      "tiger": 2443,
      "smo": 2444,
      "frown": 2445,
      "wis": 2446,
      "era": 2447,
      "dig": 2448,
      "ipe": 2449,
      "borrow": 2450,
      "runk": 2451,
      "questions": 2452,
      "extra": 2453,
      "guit": 2454,
      "unique": 2455,
      "gust": 2456,
      "harder": 2457,
      "yal": 2458,
      "organized": 2459,
      "aser": 2460,
      "figure": 2461,
      "Letâ": 2462,
      "once": 2463,
      "discovered": 2464,
      "illi": 2465,
      "meal": 2466,
      "Whe": 2467,
      "supp": 2468,
      "order": 2469,
      "four": 2470,
      "locked": 2471,
      "ating": 2472,
      "coins": 2473,
      "needs": 2474,
      "adventur": 2475,
      "fake": 2476,
      "soap": 2477,
      "rare": 2478,
      "spun": 2479,
      "umbled": 2480,
      "fine": 2481,
      "famous": 2482,
      "noisy": 2483,
      "check": 2484,
      "dish": 2485,
      "queen": 2486,
      "tro": 2487,
      "content": 2488,
      "hurts": 2489,
      "Mar": 2490,
      "gue": 2491,
      "ates": 2492,
      "adventurous": 2493,
      "Mandy": 2494,
      "Rose": 2495,
      "flut": 2496,
      "Grand": 2497,
      "barn": 2498,
      "pal": 2499,
      "libr": 2500,
      "ruined": 2501,
      "guitar": 2502,
      "knife": 2503,
      "toug": 2504,
      "boys": 2505,
      "loyal": 2506,
      "?\".": 2507,
      "kindness": 2508,
      "St": 2509,
      "balloons": 2510,
      "smoke": 2511,
      "record": 2512,
      "mighty": 2513,
      "giving": 2514,
      "fu": 2515,
      "number": 2516,
      "decide": 2517,
      "saying": 2518,
      "cil": 2519,
      "pointing": 2520,
      "bathroom": 2521,
      "circles": 2522,
      "men": 2523,
      "cient": 2524,
      "ountain": 2525,
      "sell": 2526,
      "favour": 2527,
      "wagon": 2528,
      "fic": 2529,
      "boxes": 2530,
      "realised": 2531,
      "balance": 2532,
      "offered": 2533,
      "pump": 2534,
      "zed": 2535,
      "eng": 2536,
      "impressed": 2537,
      "cheerful": 2538,
      "fountain": 2539,
      "fright": 2540,
      "learning": 2541,
      "managed": 2542,
      "tools": 2543,
      "jam": 2544,
      "pencil": 2545,
      "city": 2546,
      "eye": 2547,
      "cleaned": 2548,
      "wrapped": 2549,
      "favourite": 2550,
      "diffic": 2551,
      "tough": 2552,
      "Br": 2553,
      "lamp": 2554,
      "thick": 2555,
      "chang": 2556,
      "fluffy": 2557,
      "tom": 2558,
      "added": 2559,
      "selves": 2560,
      "successful": 2561,
      "juicy": 2562,
      "sword": 2563,
      "using": 2564,
      "rat": 2565,
      "edge": 2566,
      "chase": 2567,
      "laughs": 2568,
      "cro": 2569,
      "dol": 2570,
      "shows": 2571,
      "difficult": 2572,
      "yell": 2573,
      "grown": 2574,
      "colourful": 2575,
      "tag": 2576,
      "market": 2577,
      "trucks": 2578,
      "team": 2579,
      "obed": 2580,
      "alous": 2581,
      "bottom": 2582,
      "dolph": 2583,
      "wha": 2584,
      "bloom": 2585,
      "already": 2586,
      "enjoying": 2587,
      "jealous": 2588,
      "oph": 2589,
      "sailed": 2590,
      "poured": 2591,
      "Soph": 2592,
      "harm": 2593,
      "imed": 2594,
      "belonged": 2595,
      "lifted": 2596,
      "Ow": 2597,
      "snee": 2598,
      "invited": 2599,
      "ular": 2600,
      "weird": 2601,
      "march": 2602,
      "jac": 2603,
      "terri": 2604,
      "ured": 2605,
      "straw": 2606,
      "ears": 2607,
      "crayon": 2608,
      "courage": 2609,
      "compet": 2610,
      "happening": 2611,
      "hats": 2612,
      "obedient": 2613,
      "lift": 2614,
      "Joey": 2615,
      "valu": 2616,
      "sil": 2617,
      "agree": 2618,
      "shape": 2619,
      "stru": 2620,
      "island": 2621,
      "vest": 2622,
      "turt": 2623,
      "Mrs": 2624,
      "competit": 2625,
      "rough": 2626,
      "fool": 2627,
      "Ju": 2628,
      "knows": 2629,
      "louder": 2630,
      "uggled": 2631,
      "trunk": 2632,
      "buttons": 2633,
      "slipped": 2634,
      "shadow": 2635,
      "Grandpa": 2636,
      "Brown": 2637,
      "suggested": 2638,
      "Would": 2639,
      "Dave": 2640,
      "hoop": 2641,
      "bubbles": 2642,
      "squee": 2643,
      "lean": 2644,
      "Bear": 2645,
      "rh": 2646,
      "stubb": 2647,
      "iver": 2648,
      "weal": 2649,
      "dizzy": 2650,
      "ilt": 2651,
      "keys": 2652,
      "gum": 2653,
      "crawled": 2654,
      "port": 2655,
      "nail": 2656,
      "whale": 2657,
      "ancient": 2658,
      "ination": 2659,
      "clap": 2660,
      "Mil": 2661,
      "study": 2662,
      "shells": 2663,
      "toma": 2664,
      "helps": 2665,
      "flash": 2666,
      "unusual": 2667,
      "choose": 2668,
      "happiness": 2669,
      "dead": 2670,
      "crack": 2671,
      "frag": 2672,
      "brilli": 2673,
      "fier": 2674,
      "frightened": 2675,
      "ature": 2676,
      "acorn": 2677,
      "aced": 2678,
      "brilliant": 2679,
      "pee": 2680,
      "bags": 2681,
      "norm": 2682,
      "ado": 2683,
      "birdie": 2684,
      "loudly": 2685,
      "valuable": 2686,
      "stubborn": 2687,
      "apo": 2688,
      "fat": 2689,
      "nosy": 2690,
      "escape": 2691,
      "news": 2692,
      "map": 2693,
      "safely": 2694,
      "useful": 2695,
      "dreamed": 2696,
      "comple": 2697,
      "stri": 2698,
      "rose": 2699,
      "dep": 2700,
      "acce": 2701,
      "lights": 2702,
      "fridge": 2703,
      "fragile": 2704,
      "wing": 2705,
      "scr": 2706,
      "houses": 2707,
      "clay": 2708,
      "fierce": 2709,
      "clock": 2710,
      "normal": 2711,
      "cube": 2712,
      "guard": 2713,
      "breakfast": 2714,
      "apolog": 2715,
      "brothers": 2716,
      "walls": 2717,
      "als": 2718,
      "reli": 2719,
      "bushes": 2720,
      "skin": 2721,
      "means": 2722,
      "bald": 2723,
      "turtle": 2724,
      "foolish": 2725,
      "twig": 2726,
      "falls": 2727,
      "toast": 2728,
      "rode": 2729,
      "epend": 2730,
      "cab": 2731,
      "hammer": 2732,
      "playful": 2733,
      "independ": 2734,
      "aunt": 2735,
      "witch": 2736,
      "print": 2737,
      "fresh": 2738,
      "shiver": 2739,
      "stream": 2740,
      "shark": 2741,
      "bounce": 2742,
      "reliable": 2743,
      "dough": 2744,
      "Pat": 2745,
      "bled": 2746,
      "dom": 2747,
      "reg": 2748,
      "angel": 2749,
      "nicely": 2750,
      "cudd": 2751,
      "hairy": 2752,
      "marble": 2753,
      "sca": 2754,
      "raced": 2755,
      "cabin": 2756,
      "ines": 2757,
      "Tweety": 2758,
      "suit": 2759,
      "Bu": 2760,
      "vice": 2761,
      "notice": 2762,
      "Whenever": 2763,
      "against": 2764,
      "mixed": 2765,
      "Lola": 2766,
      "aw": 2767,
      "stumbled": 2768,
      "arage": 2769,
      "garage": 2770,
      "load": 2771,
      "office": 2772,
      "olin": 2773,
      "dreams": 2774,
      "bove": 2775,
      "popcorn": 2776,
      "chicken": 2777,
      "whispered": 2778,
      "showing": 2779,
      "hi": 2780,
      "explored": 2781,
      "boats": 2782,
      "above": 2783,
      "counted": 2784,
      "ormous": 2785,
      "Will": 2786,
      "grace": 2787,
      "enormous": 2788,
      "excla": 2789,
      "jolly": 2790,
      "proudly": 2791,
      "Ro": 2792,
      "depend": 2793,
      "wire": 2794,
      "thoughtful": 2795,
      "built": 2796,
      "exclaimed": 2797,
      "practice": 2798,
      "chose": 2799,
      "delic": 2800,
      "reminded": 2801,
      "independent": 2802,
      "glo": 2803,
      "adm": 2804,
      "brightly": 2805,
      "violin": 2806,
      "bump": 2807,
      "motor": 2808,
      "bs": 2809,
      "pumpkin": 2810,
      "yet": 2811,
      "wealthy": 2812,
      "Ho": 2813,
      "dge": 2814,
      "ext": 2815,
      "amond": 2816,
      "parrot": 2817,
      "desk": 2818,
      "themselves": 2819,
      "rubbed": 2820,
      "bossy": 2821,
      "Next": 2822,
      "ray": 2823,
      "Andy": 2824,
      "kinds": 2825,
      "diamond": 2826,
      "spoiled": 2827,
      "wiped": 2828,
      "metal": 2829,
      "rushed": 2830,
      "snif": 2831,
      "delicate": 2832,
      "shone": 2833,
      "terrible": 2834,
      "cur": 2835,
      "!\".": 2836,
      "excitedly": 2837,
      "ations": 2838,
      "stat": 2839,
      "kicked": 2840,
      "Sophie": 2841,
      "mes": 2842,
      "upid": 2843,
      "moder": 2844,
      "fingers": 2845,
      "seem": 2846,
      "patch": 2847,
      "oc": 2848,
      "cheer": 2849,
      "delighted": 2850,
      "popul": 2851,
      "sounded": 2852,
      "popular": 2853,
      "design": 2854,
      "allowed": 2855,
      "jacket": 2856,
      "nur": 2857,
      "Ge": 2858,
      "scare": 2859,
      "orig": 2860,
      "sof": 2861,
      "stupid": 2862,
      "cart": 2863,
      "spinning": 2864,
      "finding": 2865,
      "handed": 2866,
      "searching": 2867,
      "Kim": 2868,
      "roof": 2869,
      "arry": 2870,
      "stage": 2871,
      "uring": 2872,
      "graceful": 2873,
      "bitter": 2874,
      "cing": 2875,
      "lli": 2876,
      "inal": 2877,
      "orge": 2878,
      "compass": 2879,
      "scoo": 2880,
      "serious": 2881,
      "changed": 2882,
      "Ducky": 2883,
      "movie": 2884,
      "scrat": 2885,
      "pebb": 2886,
      "banana": 2887,
      "library": 2888,
      "chir": 2889,
      "smaller": 2890,
      "modern": 2891,
      "cone": 2892,
      "truth": 2893,
      "wrap": 2894,
      "original": 2895,
      "rise": 2896,
      "steal": 2897,
      "ery": 2898,
      "lope": 2899,
      "lolli": 2900,
      "fort": 2901,
      "beet": 2902,
      "fed": 2903,
      "erry": 2904,
      "coco": 2905,
      "umsy": 2906,
      "Ru": 2907,
      "goat": 2908,
      "solve": 2909,
      "stretch": 2910,
      "memor": 2911,
      "gasped": 2912,
      "cam": 2913,
      "liz": 2914,
      "pota": 2915,
      "stronger": 2916,
      "barber": 2917,
      "sleeping": 2918,
      "dust": 2919,
      "telling": 2920,
      "dependable": 2921,
      "cli": 2922,
      "leaving": 2923,
      "ject": 2924,
      "beep": 2925,
      "picking": 2926,
      "œYes": 2927,
      "bees": 2928,
      "tern": 2929,
      "post": 2930,
      "ither": 2931,
      "cleaning": 2932,
      "doesn": 2933,
      "admired": 2934,
      "env": 2935,
      "beak": 2936,
      "regular": 2937,
      "Sandy": 2938,
      "œIt": 2939,
      "Toby": 2940,
      "power": 2941,
      "scooter": 2942,
      "umbre": 2943,
      "clumsy": 2944,
      "sauce": 2945,
      "unknown": 2946,
      "gem": 2947,
      "joined": 2948,
      "spend": 2949,
      "tank": 2950,
      "salad": 2951,
      "advice": 2952,
      "forth": 2953,
      "œWhat": 2954,
      "pige": 2955,
      "stove": 2956,
      "jog": 2957,
      "tem": 2958,
      "gloom": 2959,
      "egg": 2960,
      "sal": 2961,
      "careless": 2962,
      "missing": 2963,
      "wheels": 2964,
      "tunnel": 2965,
      "hun": 2966,
      "those": 2967,
      "pattern": 2968,
      "ience": 2969,
      "illa": 2970,
      "flex": 2971,
      "thinking": 2972,
      "ti": 2973,
      "sudden": 2974,
      "zip": 2975,
      "painted": 2976,
      "crazy": 2977,
      "mole": 2978,
      "pengu": 2979,
      "statue": 2980,
      "George": 2981,
      "Mike": 2982,
      "thunder": 2983,
      "compassion": 2984,
      "shocked": 2985,
      "Lee": 2986,
      "grandpa": 2987,
      "cod": 2988,
      "coll": 2989,
      "tele": 2990,
      "dreaming": 2991,
      "vet": 2992,
      "package": 2993,
      "enve": 2994,
      "ugged": 2995,
      "early": 2996,
      "dolphin": 2997,
      "gloomy": 2998,
      "ley": 2999,
      "inde": 3000,
      "stranger": 3001,
      "bean": 3002,
      "humble": 3003,
      "thirst": 3004,
      "prize": 3005,
      "opens": 3006,
      "friendship": 3007,
      "Paul": 3008,
      "Al": 3009,
      "ingred": 3010,
      "cane": 3011,
      "ingredient": 3012,
      "pup": 3013,
      "dove": 3014,
      "roy": 3015,
      "sunflower": 3016,
      "cupboard": 3017,
      "flexible": 3018,
      "tied": 3019,
      "aches": 3020,
      "sparkled": 3021,
      "ages": 3022,
      "jeep": 3023,
      "io": 3024,
      "deliver": 3025,
      "umbers": 3026,
      "tummy": 3027,
      "reward": 3028,
      "beetle": 3029,
      "collar": 3030,
      "cereal": 3031,
      "ino": 3032,
      "lex": 3033,
      "carto": 3034,
      "carrying": 3035,
      "half": 3036,
      "discover": 3037,
      "planet": 3038,
      "sne": 3039,
      "anda": 3040,
      "robe": 3041,
      "engine": 3042,
      "crocod": 3043,
      "brace": 3044,
      "avo": 3045,
      "slides": 3046,
      "cco": 3047,
      "jumps": 3048,
      "imagined": 3049,
      "hay": 3050,
      "sink": 3051,
      "isted": 3052,
      "biggest": 3053,
      "pirate": 3054,
      "Ne": 3055,
      "pale": 3056,
      "holds": 3057,
      "wander": 3058,
      "steps": 3059,
      "rece": 3060,
      "stal": 3061,
      "create": 3062,
      "Tweetie": 3063,
      "verse": 3064,
      "asses": 3065,
      "sadly": 3066,
      "thirsty": 3067,
      "handle": 3068,
      "couldnâ": 3069,
      "square": 3070,
      "squash": 3071,
      "Un": 3072,
      "anut": 3073,
      "ended": 3074,
      "ubby": 3075,
      "Alex": 3076,
      "thus": 3077,
      "ribb": 3078,
      "igator": 3079,
      "ordin": 3080,
      "travel": 3081,
      "destroy": 3082,
      "Bye": 3083,
      "Lilly": 3084,
      "numbers": 3085,
      "anx": 3086,
      "washed": 3087,
      "shut": 3088,
      "ordinary": 3089,
      "curt": 3090,
      "deaf": 3091,
      "super": 3092,
      "curtain": 3093,
      "lla": 3094,
      "peeked": 3095,
      "umbrella": 3096,
      "bracelet": 3097,
      "enthus": 3098,
      "cocoa": 3099,
      "ckets": 3100,
      "tti": 3101,
      "mailbox": 3102,
      "Or": 3103,
      "harmless": 3104,
      "Polly": 3105,
      "gir": 3106,
      "alert": 3107,
      "warned": 3108,
      "bent": 3109,
      "jet": 3110,
      "por": 3111,
      "tered": 3112,
      "main": 3113,
      "arrow": 3114,
      "sorts": 3115,
      "celebrate": 3116,
      "lizard": 3117,
      "trum": 3118,
      "ingredients": 3119,
      "anxious": 3120,
      "bull": 3121,
      "ahead": 3122,
      "disgust": 3123,
      "torn": 3124,
      "intell": 3125,
      "noon": 3126,
      "goose": 3127,
      "Danny": 3128,
      "intellig": 3129,
      "alligator": 3130,
      "ges": 3131,
      "nature": 3132,
      "stops": 3133,
      "belt": 3134,
      "ince": 3135,
      "return": 3136,
      "pear": 3137,
      "iches": 3138,
      "club": 3139,
      "sity": 3140,
      "swee": 3141,
      "œLetâ": 3142,
      "drawer": 3143,
      "raven": 3144,
      "butterflies": 3145,
      "tray": 3146,
      "sandwiches": 3147,
      "envelope": 3148,
      "chubby": 3149,
      "trash": 3150,
      "driving": 3151,
      "hetti": 3152,
      "aghetti": 3153,
      "coo": 3154,
      "Bill": 3155,
      "Yay": 3156,
      "doors": 3157,
      "bandage": 3158,
      "crocodile": 3159,
      "trap": 3160,
      "zebra": 3161,
      "placed": 3162,
      "screen": 3163,
      "nurse": 3164,
      "may": 3165,
      "persist": 3166,
      "host": 3167,
      "lim": 3168,
      "poem": 3169,
      "comput": 3170,
      "whist": 3171,
      "view": 3172,
      "Char": 3173,
      "reci": 3174,
      "remain": 3175,
      "gling": 3176,
      "struct": 3177,
      "reading": 3178,
      "Millie": 3179,
      "rules": 3180,
      "penny": 3181,
      "refused": 3182,
      "spaghetti": 3183,
      "pretending": 3184,
      "soldier": 3185,
      "trumpet": 3186,
      "peanut": 3187,
      "ief": 3188,
      "older": 3189,
      "snuggled": 3190,
      "crawl": 3191,
      "aero": 3192,
      "sty": 3193,
      "ilty": 3194,
      "guilty": 3195,
      "pian": 3196,
      "rug": 3197,
      "monkeys": 3198,
      "triang": 3199,
      "chasing": 3200,
      "radio": 3201,
      "uncomfortable": 3202,
      "towers": 3203,
      "scale": 3204,
      "question": 3205,
      "nobody": 3206,
      "cooking": 3207,
      "giggle": 3208,
      "aid": 3209,
      "pants": 3210,
      "station": 3211,
      "spilled": 3212,
      "brighter": 3213,
      "growing": 3214,
      "spring": 3215,
      "beauty": 3216,
      "complete": 3217,
      "envious": 3218,
      "dull": 3219,
      "respectful": 3220,
      "yogurt": 3221,
      "sofa": 3222,
      "piano": 3223,
      "neighb": 3224,
      "cheap": 3225,
      "gifted": 3226,
      "serve": 3227,
      "lively": 3228,
      "competitive": 3229,
      "hunter": 3230,
      "disgusting": 3231,
      "ceed": 3232,
      "impressive": 3233,
      "parade": 3234,
      "glasses": 3235,
      "pressed": 3236,
      "wishes": 3237,
      "base": 3238,
      "counting": 3239,
      "pigeon": 3240,
      "bet": 3241,
      "quar": 3242,
      "country": 3243,
      "otter": 3244,
      "tic": 3245,
      "shouts": 3246,
      "jug": 3247,
      "theart": 3248,
      "stretched": 3249,
      "helmet": 3250,
      "helpless": 3251,
      "ost": 3252,
      "shroom": 3253,
      "spell": 3254,
      "lightning": 3255,
      "compassionate": 3256,
      "gie": 3257,
      "fork": 3258,
      "hurry": 3259,
      "camera": 3260,
      "ghost": 3261,
      "leo": 3262,
      "cakes": 3263,
      "windows": 3264,
      "given": 3265,
      "zi": 3266,
      "arian": 3267,
      "stack": 3268,
      "drop": 3269,
      "trick": 3270,
      "bounced": 3271,
      "persistent": 3272,
      "Flo": 3273,
      "bri": 3274,
      "neat": 3275,
      "names": 3276,
      "sweetheart": 3277,
      "scat": 3278,
      "earth": 3279,
      "spoke": 3280,
      "suppl": 3281,
      "mask": 3282,
      "charm": 3283,
      "five": 3284,
      "pepper": 3285,
      "shoot": 3286,
      "gging": 3287,
      "intelligent": 3288,
      "pit": 3289,
      "repe": 3290,
      "stic": 3291,
      "anywhere": 3292,
      "barking": 3293,
      "further": 3294,
      "ctive": 3295,
      "flashlight": 3296,
      "est": 3297,
      "leash": 3298,
      "separ": 3299,
      "lives": 3300,
      "chance": 3301,
      "iest": 3302,
      "bikes": 3303,
      "letters": 3304,
      "Bet": 3305,
      "comb": 3306,
      "Nemo": 3307,
      "knot": 3308,
      "mushroom": 3309,
      "listening": 3310,
      "dug": 3311,
      "œThat": 3312,
      "shaking": 3313,
      "octop": 3314,
      "twirled": 3315,
      "Hen": 3316,
      "skip": 3317,
      "crystal": 3318,
      "seeds": 3319,
      "porch": 3320,
      "computer": 3321,
      "Did": 3322,
      "bin": 3323,
      "aroo": 3324,
      "angaroo": 3325,
      "Bun": 3326,
      "impro": 3327,
      "aff": 3328,
      "secon": 3329,
      "speed": 3330,
      "exper": 3331,
      "badly": 3332,
      "practiced": 3333,
      "lions": 3334,
      "shoe": 3335,
      "troubled": 3336,
      "Mim": 3337,
      "firework": 3338,
      "attic": 3339,
      "sweater": 3340,
      "kangaroo": 3341,
      "pun": 3342,
      "cap": 3343,
      "miser": 3344,
      "ostrich": 3345,
      "leopar": 3346,
      "ener": 3347,
      "succeed": 3348,
      "roared": 3349,
      "melon": 3350,
      "stirred": 3351,
      "seal": 3352,
      "sport": 3353,
      "nuts": 3354,
      "octopus": 3355,
      "flour": 3356,
      "icycle": 3357,
      "fis": 3358,
      "ween": 3359,
      "Before": 3360,
      "boots": 3361,
      "ccoli": 3362,
      "miserable": 3363,
      "cran": 3364,
      "ffin": 3365,
      "Mimi": 3366,
      "bicycle": 3367,
      "stickers": 3368,
      "thief": 3369,
      "knock": 3370,
      "polish": 3371,
      "cows": 3372,
      "fearful": 3373,
      "hipp": 3374,
      "hall": 3375,
      "aked": 3376,
      "These": 3377,
      "az": 3378,
      "ath": 3379,
      "complain": 3380,
      "broccoli": 3381,
      "swinging": 3382,
      "gor": 3383,
      "yaw": 3384,
      "unk": 3385,
      "sandbox": 3386,
      "track": 3387,
      "pulls": 3388,
      "screw": 3389,
      "support": 3390,
      "sheet": 3391,
      "uncle": 3392,
      "rub": 3393,
      "needle": 3394,
      "pasta": 3395,
      "cob": 3396,
      "fac": 3397,
      "Everything": 3398,
      "somewhere": 3399,
      "starts": 3400,
      "value": 3401,
      "Tr": 3402,
      "panda": 3403,
      "inking": 3404,
      "admi": 3405,
      "Brownie": 3406,
      "licop": 3407,
      "tube": 3408,
      "licopter": 3409,
      "didnâ": 3410,
      "fireman": 3411,
      "creatures": 3412,
      "penguin": 3413,
      "Kate": 3414,
      "Mag": 3415,
      "cards": 3416,
      "sort": 3417,
      "scoop": 3418,
      "flute": 3419,
      "bur": 3420,
      "either": 3421,
      "onion": 3422,
      "attra": 3423,
      "ador": 3424,
      "leopard": 3425,
      "thread": 3426,
      "wever": 3427,
      "hedge": 3428,
      "distur": 3429,
      "decorate": 3430,
      "Is": 3431,
      "hive": 3432,
      "sses": 3433,
      "reinde": 3434,
      "Charlie": 3435,
      "charming": 3436,
      "loop": 3437,
      "wallet": 3438,
      "anyway": 3439,
      "filthy": 3440,
      "enthusia": 3441,
      "Henry": 3442,
      "camp": 3443,
      "paws": 3444,
      "enthusiastic": 3445,
      "Jess": 3446,
      "helicopter": 3447,
      "perform": 3448,
      "steak": 3449,
      "gn": 3450,
      "mill": 3451,
      "repair": 3452,
      "split": 3453,
      "gain": 3454,
      "mild": 3455,
      "pony": 3456,
      "rice": 3457,
      "happier": 3458,
      "carpet": 3459,
      "spir": 3460,
      "hippo": 3461,
      "Harry": 3462,
      "vol": 3463,
      "admire": 3464,
      "Grace": 3465,
      "meow": 3466,
      "pole": 3467,
      "stume": 3468,
      "costume": 3469,
      "zoomed": 3470,
      "human": 3471,
      "Maria": 3472,
      "fan": 3473,
      "mug": 3474,
      "meas": 3475,
      "clu": 3476,
      "kers": 3477,
      "starting": 3478,
      "papers": 3479,
      "tripped": 3480,
      "palace": 3481,
      "pho": 3482,
      "trem": 3483,
      "trains": 3484,
      "scope": 3485,
      "grabs": 3486,
      "organize": 3487,
      "candle": 3488,
      "aur": 3489,
      "muffin": 3490,
      "aeroplane": 3491,
      "photo": 3492,
      "Jerry": 3493,
      "Snow": 3494,
      "mas": 3495,
      "holes": 3496,
      "restaur": 3497,
      "pipe": 3498,
      "hood": 3499,
      "sailor": 3500,
      "ded": 3501,
      "smells": 3502,
      "rhino": 3503,
      "adorable": 3504,
      "Po": 3505,
      "chur": 3506,
      "cats": 3507,
      "triangle": 3508,
      "reindeer": 3509,
      "ummer": 3510,
      "tooth": 3511,
      "harsh": 3512,
      "restaurant": 3513,
      "tion": 3514,
      "seum": 3515,
      "museum": 3516,
      "impat": 3517,
      "distant": 3518,
      "jellyfish": 3519,
      "frowned": 3520,
      "crane": 3521,
      "church": 3522,
      "size": 3523,
      "eraser": 3524,
      "maze": 3525,
      "paid": 3526,
      "lollipop": 3527,
      "cact": 3528,
      "evening": 3529,
      "oat": 3530,
      "nowhere": 3531,
      "restless": 3532,
      "mama": 3533,
      "yarn": 3534,
      "sau": 3535,
      "pushing": 3536,
      "cooked": 3537,
      "dess": 3538,
      "wheat": 3539,
      "Red": 3540,
      "hook": 3541,
      "Annie": 3542,
      "Tony": 3543,
      "vroom": 3544,
      "mission": 3545,
      "cano": 3546,
      "James": 3547,
      "riding": 3548,
      "quarrel": 3549,
      "attractive": 3550,
      "kne": 3551,
      "scold": 3552,
      "tur": 3553,
      "tick": 3554,
      "modest": 3555,
      "page": 3556,
      "object": 3557,
      "impatient": 3558,
      "shade": 3559,
      "cricket": 3560,
      "ignorant": 3561,
      "ceros": 3562,
      "avoc": 3563,
      "forgave": 3564,
      "speak": 3565,
      "imagine": 3566,
      "jokes": 3567,
      "bathtub": 3568,
      "resc": 3569,
      "laun": 3570,
      "Thanks": 3571,
      "choice": 3572,
      "gorilla": 3573,
      "rescue": 3574,
      "castles": 3575,
      "reco": 3576,
      "ssss": 3577,
      "Bunny": 3578,
      "aled": 3579,
      "endor": 3580,
      "magnet": 3581,
      "planes": 3582,
      "rolling": 3583,
      "oy": 3584,
      "afternoon": 3585,
      "Whis": 3586,
      "chan": 3587,
      "tomato": 3588,
      "quite": 3589,
      "swamp": 3590,
      "pebble": 3591,
      "cactus": 3592,
      "shakes": 3593,
      "volcano": 3594,
      "recogn": 3595,
      "resp": 3596,
      "coal": 3597,
      "marched": 3598,
      "avail": 3599,
      "Co": 3600,
      "itten": 3601,
      "backpack": 3602,
      "energy": 3603,
      "..": 3604,
      "vendor": 3605,
      "raft": 3606,
      "powder": 3607,
      "battery": 3608,
      "stared": 3609,
      "grapes": 3610,
      "shrimp": 3611,
      "factory": 3612,
      "Baby": 3613,
      "inse": 3614,
      "itself": 3615,
      "enter": 3616,
      "learnt": 3617,
      "bears": 3618,
      "lk": 3619,
      "iron": 3620,
      "bol": 3621,
      "checked": 3622,
      "airport": 3623,
      "bananas": 3624,
      "laundry": 3625,
      "shield": 3626,
      "uddy": 3627,
      "True": 3628,
      "fee": 3629,
      "raining": 3630,
      "Cl": 3631,
      "turkey": 3632,
      "unhappy": 3633,
      "sock": 3634,
      "mule": 3635,
      "ache": 3636,
      "eagerly": 3637,
      "rhinoceros": 3638,
      "dar": 3639,
      "summer": 3640,
      "behave": 3641,
      "meat": 3642,
      "angu": 3643,
      "message": 3644,
      "available": 3645,
      "vine": 3646,
      "web": 3647,
      "buzz": 3648,
      "winter": 3649,
      "finds": 3650,
      "judge": 3651,
      "sprink": 3652,
      "dive": 3653,
      "clapping": 3654,
      "affe": 3655,
      "leaned": 3656,
      "langu": 3657,
      "dessert": 3658,
      "sle": 3659,
      "twist": 3660,
      "chain": 3661,
      "goal": 3662,
      "reeze": 3663,
      "cush": 3664,
      "colours": 3665,
      "Whiskers": 3666,
      "edy": 3667,
      "offee": 3668,
      "diary": 3669,
      "Because": 3670,
      "chanic": 3671,
      "appreci": 3672,
      "Freddy": 3673,
      "strawberry": 3674,
      "Sm": 3675,
      "hoping": 3676,
      "donâ": 3677,
      "feelings": 3678,
      "haircut": 3679,
      "bulb": 3680,
      "ffle": 3681,
      "hadn": 3682,
      "drawings": 3683,
      "silver": 3684,
      "Sp": 3685,
      "ense": 3686,
      "iling": 3687,
      "mechanic": 3688,
      "swung": 3689,
      "shouldn": 3690,
      "danger": 3691,
      "soil": 3692,
      "dishes": 3693,
      "cooler": 3694,
      "ucked": 3695,
      "between": 3696,
      "skill": 3697,
      "thanks": 3698,
      "cycle": 3699,
      "player": 3700,
      "flame": 3701,
      "salt": 3702,
      "Qu": 3703,
      "quit": 3704,
      "math": 3705,
      "climbing": 3706,
      "cherries": 3707,
      "giraffe": 3708,
      "ides": 3709,
      "alive": 3710,
      "video": 3711,
      "neighbour": 3712,
      "awe": 3713,
      "axe": 3714,
      "teas": 3715,
      "chalk": 3716,
      "tuna": 3717,
      "ris": 3718,
      "beam": 3719,
      "minute": 3720,
      "barrel": 3721,
      "counter": 3722,
      "coffee": 3723,
      "barks": 3724,
      "ox": 3725,
      "€“": 3726,
      "shel": 3727,
      "imagination": 3728,
      "bubble": 3729,
      "Papa": 3730,
      "spirit": 3731,
      "luck": 3732,
      "sym": 3733,
      "peach": 3734,
      "belongs": 3735,
      "fisher": 3736,
      "Maggie": 3737,
      "journ": 3738,
      "microscope": 3739,
      "Kat": 3740,
      "shovel": 3741,
      "tricks": 3742,
      "falling": 3743,
      "œYou": 3744,
      "chor": 3745,
      "cups": 3746,
      "fields": 3747,
      "appl": 3748,
      "resist": 3749,
      "pted": 3750,
      "waffle": 3751,
      "sticker": 3752,
      "frame": 3753,
      "Wa": 3754,
      "glove": 3755,
      "ents": 3756,
      "napkin": 3757,
      "Tina": 3758,
      "ccer": 3759,
      "ambul": 3760,
      "perfectly": 3761,
      "shelter": 3762,
      "ambulance": 3763,
      "intro": 3764,
      "bey": 3765,
      "buck": 3766,
      "painter": 3767,
      "comfort": 3768,
      "second": 3769,
      "introd": 3770,
      "May": 3771,
      "breeze": 3772,
      "ison": 3773,
      "skull": 3774,
      "visited": 3775,
      "breaks": 3776,
      "blowing": 3777,
      "weather": 3778,
      "izes": 3779,
      "dancer": 3780,
      "hanging": 3781,
      "Ruby": 3782,
      "journal": 3783,
      "soccer": 3784,
      "seeing": 3785,
      "comet": 3786,
      "symbol": 3787,
      "headed": 3788,
      "crib": 3789,
      "zipper": 3790,
      "pas": 3791,
      "popped": 3792,
      "softly": 3793,
      "marry": 3794,
      "unlock": 3795,
      "putting": 3796,
      "football": 3797,
      "yoga": 3798,
      "apologized": 3799,
      "folder": 3800,
      "throws": 3801,
      "microphone": 3802,
      "stuffed": 3803,
      "sunglasses": 3804,
      "frogs": 3805,
      "freez": 3806,
      "fog": 3807,
      "greedy": 3808,
      "cable": 3809,
      "gro": 3810,
      "anchor": 3811,
      "baking": 3812,
      "notebook": 3813,
      "Wel": 3814,
      "Welcome": 3815,
      "Sun": 3816,
      "tire": 3817,
      "une": 3818,
      "inclu": 3819,
      "tap": 3820,
      "stamp": 3821,
      "cliff": 3822,
      "superhero": 3823,
      "mm": 3824,
      "mand": 3825,
      "pushes": 3826,
      "lands": 3827,
      "wife": 3828,
      "kingdom": 3829,
      "astic": 3830,
      "regre": 3831,
      "fisherman": 3832,
      "hotel": 3833,
      "Frank": 3834,
      "knob": 3835,
      "troph": 3836,
      "Wait": 3837,
      "oil": 3838,
      "rend": 3839,
      "shouting": 3840,
      "medi": 3841,
      "closely": 3842,
      "grill": 3843,
      "golden": 3844,
      "Su": 3845,
      "hut": 3846,
      "ornam": 3847,
      "tutor": 3848,
      "experience": 3849,
      "purse": 3850,
      "attent": 3851,
      "kitty": 3852,
      "Buddy": 3853,
      "cost": 3854,
      "cared": 3855,
      "forgotten": 3856,
      "jewelry": 3857,
      "ms": 3858,
      "tax": 3859,
      "tip": 3860,
      "trophy": 3861,
      "igloo": 3862,
      "drops": 3863,
      "sneak": 3864,
      "oyster": 3865,
      "itâ": 3866,
      "erc": 3867,
      "moves": 3868,
      "easily": 3869,
      "task": 3870,
      "sunset": 3871,
      "surround": 3872,
      "First": 3873,
      "Have": 3874,
      "reve": 3875,
      "wool": 3876,
      "potato": 3877,
      "regret": 3878,
      "aking": 3879,
      "died": 3880,
      "cheek": 3881,
      "twink": 3882,
      "basketball": 3883,
      "Clara": 3884,
      "cuss": 3885,
      "claw": 3886,
      "chirp": 3887,
      "mediately": 3888,
      "petal": 3889,
      "peek": 3890,
      "attention": 3891,
      "God": 3892,
      "lend": 3893,
      "send": 3894,
      "poss": 3895,
      "crash": 3896,
      "Ste": 3897,
      "sir": 3898,
      "yach": 3899,
      "grin": 3900,
      "eaten": 3901,
      "mystery": 3902,
      "rubber": 3903,
      "Miss": 3904,
      "ding": 3905,
      "cau": 3906,
      "ction": 3907,
      "treasures": 3908,
      "heads": 3909,
      "discuss": 3910,
      "streng": 3911,
      "meeting": 3912,
      "cauli": 3913,
      "unpack": 3914,
      "exerc": 3915,
      "prune": 3916,
      "points": 3917,
      "magaz": 3918,
      "fireplace": 3919,
      "writing": 3920,
      "inked": 3921,
      "fortun": 3922,
      "demand": 3923,
      "miner": 3924,
      "warning": 3925,
      "radish": 3926,
      "memories": 3927,
      "tol": 3928,
      "leton": 3929,
      "keleton": 3930,
      "capt": 3931,
      "Smith": 3932,
      "yacht": 3933,
      "strength": 3934,
      "Pen": 3935,
      "istol": 3936,
      "staff": 3937,
      "disappear": 3938,
      "uniform": 3939,
      "pistol": 3940,
      "offer": 3941,
      "candles": 3942,
      "lime": 3943,
      "Instead": 3944,
      "shopkeeper": 3945,
      "lawy": 3946,
      "wine": 3947,
      "rake": 3948,
      "avocado": 3949,
      "cauliflower": 3950,
      "ceiling": 3951,
      "quiz": 3952,
      "sniffed": 3953,
      "Iâ": 3954,
      "dear": 3955,
      "language": 3956,
      "zzy": 3957,
      "invest": 3958,
      "sting": 3959,
      "chim": 3960,
      "poke": 3961,
      "comm": 3962,
      "delay": 3963,
      "taxi": 3964,
      "weigh": 3965,
      "surrend": 3966,
      "ppery": 3967,
      "slippery": 3968,
      "investig": 3969,
      "since": 3970,
      "waving": 3971,
      "rod": 3972,
      "holid": 3973,
      "fishing": 3974,
      "holiday": 3975,
      "Car": 3976,
      "entered": 3977,
      "short": 3978,
      "created": 3979,
      "squirrels": 3980,
      "kayak": 3981,
      "pilot": 3982,
      "celebrated": 3983,
      "slept": 3984,
      "fortunately": 3985,
      "novel": 3986,
      "happens": 3987,
      "lotion": 3988,
      "sticky": 3989,
      "breathe": 3990,
      "pirates": 3991,
      "accepted": 3992,
      "sub": 3993,
      "waste": 3994,
      "shoo": 3995,
      "poo": 3996,
      "bouncing": 3997,
      "ival": 3998,
      "bury": 3999,
      "blinked": 4000,
      "improve": 4001,
      "bang": 4002,
      "musician": 4003,
      "collected": 4004,
      "Abig": 4005,
      "kis": 4006,
      "snap": 4007,
      "sizes": 4008,
      "iture": 4009,
      "quack": 4010,
      "Joy": 4011,
      "urniture": 4012,
      "Not": 4013,
      "chickens": 4014,
      "separate": 4015,
      "petals": 4016,
      "Abigail": 4017,
      "mop": 4018,
      "follows": 4019,
      "trave": 4020,
      "œItâ": 4021,
      "grocer": 4022,
      "ckey": 4023,
      "skeleton": 4024,
      "wipe": 4025,
      "pected": 4026,
      "calls": 4027,
      "mixer": 4028,
      "served": 4029,
      "freezer": 4030,
      "investigate": 4031,
      "iv": 4032,
      "lumber": 4033,
      "boot": 4034,
      "prevent": 4035,
      "flea": 4036,
      "crow": 4037,
      "horses": 4038,
      "presents": 4039,
      "furniture": 4040,
      "suff": 4041,
      "gear": 4042,
      "flapped": 4043,
      "baseball": 4044,
      "slice": 4045,
      "nore": 4046,
      "rail": 4047,
      "hockey": 4048,
      "helper": 4049,
      "makeup": 4050,
      "rush": 4051,
      "applau": 4052,
      "argue": 4053,
      "dressed": 4054,
      "fought": 4055,
      "tear": 4056,
      "letting": 4057,
      "coats": 4058,
      "glowing": 4059,
      "ignored": 4060,
      "claws": 4061,
      "alarm": 4062,
      "veter": 4063,
      "worth": 4064,
      "veterin": 4065,
      "incre": 4066,
      "ups": 4067,
      "rooms": 4068,
      "shoulder": 4069,
      "squi": 4070,
      "Beth": 4071,
      "cushion": 4072,
      "lawyer": 4073,
      "veterinarian": 4074,
      "Ex": 4075,
      "yucky": 4076,
      "lap": 4077,
      "keeping": 4078,
      "cts": 4079,
      "scolded": 4080,
      "cardboard": 4081,
      "fume": 4082,
      "Ros": 4083,
      "Sad": 4084,
      "apart": 4085,
      "fest": 4086,
      "chimney": 4087,
      "Rosie": 4088,
      "birdcage": 4089,
      "tress": 4090,
      "sham": 4091,
      "worms": 4092,
      "mist": 4093,
      "perfume": 4094,
      "couraged": 4095,
      "asis": 4096,
      "hopes": 4097,
      "shrink": 4098,
      "si": 4099,
      "display": 4100,
      "azz": 4101,
      "hic": 4102,
      "jail": 4103,
      "oasis": 4104,
      "blouse": 4105,
      "temple": 4106,
      "possible": 4107,
      "omed": 4108,
      "cel": 4109,
      "fauce": 4110,
      "switch": 4111,
      "comed": 4112,
      "cherry": 4113,
      "However": 4114,
      "surf": 4115,
      "welcomed": 4116,
      "festival": 4117,
      "vid": 4118,
      "alright": 4119,
      "vehic": 4120,
      "mosqui": 4121,
      "appro": 4122,
      "steam": 4123,
      "bathe": 4124,
      "burned": 4125,
      "accept": 4126,
      "shampoo": 4127,
      "ignore": 4128,
      "caring": 4129,
      "newspaper": 4130,
      "'.": 4131,
      "sna": 4132,
      "tornado": 4133,
      "medal": 4134,
      "faucet": 4135,
      "Je": 4136,
      "file": 4137,
      "kneel": 4138,
      "shrugged": 4139,
      "tug": 4140,
      "yield": 4141,
      "anna": 4142,
      "toil": 4143,
      "request": 4144,
      "splashing": 4145,
      "Milly": 4146,
      "Sha": 4147,
      "Yuck": 4148,
      "sigh": 4149,
      "reaches": 4150,
      "ason": 4151,
      "trail": 4152,
      "toilet": 4153,
      "sits": 4154,
      "€.": 4155,
      "immediately": 4156,
      "fant": 4157,
      "ady": 4158,
      "oking": 4159,
      "poison": 4160,
      "skirt": 4161,
      "sprayed": 4162,
      "ribbon": 4163,
      "mistakes": 4164,
      "wags": 4165,
      "valley": 4166,
      "invit": 4167,
      "classroom": 4168,
      "kisses": 4169,
      "celery": 4170,
      "armchair": 4171,
      "licks": 4172,
      "point": 4173,
      "sailing": 4174,
      "throwing": 4175,
      "structure": 4176,
      "bother": 4177,
      "inky": 4178,
      "mattress": 4179,
      "quietly": 4180,
      "Steve": 4181,
      "ah": 4182,
      "bby": 4183,
      "argu": 4184,
      "lia": 4185,
      "raise": 4186,
      "plastic": 4187,
      "lier": 4188,
      "lawn": 4189,
      "cabinet": 4190,
      "icing": 4191,
      "rabbits": 4192,
      "safety": 4193,
      "motorcycle": 4194,
      "cell": 4195,
      "creek": 4196,
      "warmth": 4197,
      "invite": 4198,
      "Poppy": 4199,
      "junk": 4200,
      "laught": 4201,
      "cartoon": 4202,
      "laser": 4203,
      "washer": 4204,
      "following": 4205,
      "trusted": 4206,
      "gym": 4207,
      "pinch": 4208,
      "buckle": 4209,
      "subway": 4210,
      "poppy": 4211,
      "auto": 4212,
      "sneeze": 4213,
      "lic": 4214,
      "prepar": 4215,
      "perfor": 4216,
      "chairs": 4217,
      "vator": 4218,
      "laughter": 4219,
      "elevator": 4220,
      "Ma": 4221,
      "equ": 4222,
      "reef": 4223,
      "begged": 4224,
      "blueberries": 4225,
      "padd": 4226,
      "mob": 4227,
      "amazem": 4228,
      "straight": 4229,
      "recei": 4230,
      "amazement": 4231,
      "pine": 4232,
      "veil": 4233,
      "una": 4234,
      "blankets": 4235,
      "squeeze": 4236,
      "vac": 4237,
      "ideas": 4238,
      "trade": 4239,
      "hon": 4240,
      "llen": 4241,
      "crawling": 4242,
      "oe": 4243,
      "growled": 4244,
      "teaching": 4245,
      "cus": 4246,
      "reverse": 4247,
      "pastel": 4248,
      "puddles": 4249,
      "puzzles": 4250,
      "skills": 4251,
      "automob": 4252,
      "ga": 4253,
      "weep": 4254,
      "vision": 4255,
      "Each": 4256,
      "œNo": 4257,
      "stable": 4258,
      "poked": 4259,
      "hurting": 4260,
      "mustache": 4261,
      "melt": 4262,
      "sausage": 4263,
      "Happ": 4264,
      "drain": 4265,
      "label": 4266,
      "whip": 4267,
      "fallen": 4268,
      "gers": 4269,
      "Its": 4270,
      "shower": 4271,
      "bling": 4272,
      "crossed": 4273,
      "relaxed": 4274,
      "saving": 4275,
      "root": 4276,
      "earlier": 4277,
      "mint": 4278,
      "omeday": 4279,
      "attach": 4280,
      "squeezed": 4281,
      "ticket": 4282,
      "beamed": 4283,
      "ornament": 4284,
      "below": 4285,
      "ranch": 4286,
      "ringing": 4287,
      "People": 4288,
      "bumped": 4289,
      "dire": 4290,
      "Everyday": 4291,
      "magazine": 4292,
      "tucked": 4293,
      "parent": 4294,
      "igging": 4295,
      "vanished": 4296,
      "dishwasher": 4297,
      "Cat": 4298,
      "King": 4299,
      "Luck": 4300,
      "digging": 4301,
      "surprises": 4302,
      "Someone": 4303,
      "captain": 4304,
      "lab": 4305,
      "recomm": 4306,
      "bookcase": 4307,
      "wandered": 4308,
      "scratch": 4309,
      "Unfortunately": 4310,
      "Luckily": 4311,
      "tore": 4312,
      "model": 4313,
      "understanding": 4314,
      "respons": 4315,
      "missile": 4316,
      "marbles": 4317,
      "license": 4318,
      "Ok": 4319,
      "Rac": 4320,
      "ase": 4321,
      "asht": 4322,
      "Josh": 4323,
      "hearts": 4324,
      "spots": 4325,
      "Ready": 4326,
      "television": 4327,
      "beans": 4328,
      "ashtray": 4329,
      "bers": 4330,
      "someday": 4331,
      "admir": 4332,
      "climbs": 4333,
      "chamber": 4334,
      "Snowy": 4335,
      "Happy": 4336,
      "sandcastle": 4337,
      "tongue": 4338,
      "telephone": 4339,
      "supply": 4340,
      "theater": 4341,
      "remove": 4342,
      "myself": 4343,
      "hardly": 4344,
      "mosquito": 4345,
      "restore": 4346,
      "chess": 4347,
      "hurri": 4348,
      "snapped": 4349,
      "llie": 4350,
      "balanc": 4351,
      "matches": 4352,
      "Rachel": 4353,
      "dare": 4354,
      "mbers": 4355,
      "tch": 4356,
      "isn": 4357,
      "versity": 4358,
      "achie": 4359,
      "pulling": 4360,
      "destroyed": 4361,
      "mall": 4362,
      "blood": 4363,
      "provide": 4364,
      "surrender": 4365,
      "received": 4366,
      "apr": 4367,
      "none": 4368,
      "sip": 4369,
      "replace": 4370,
      "hate": 4371,
      "conf": 4372,
      "mention": 4373,
      "passport": 4374,
      "encouraged": 4375,
      "wobb": 4376,
      "believed": 4377,
      "spear": 4378,
      "massage": 4379,
      "appreciate": 4380,
      "ipping": 4381,
      "izard": 4382,
      "university": 4383,
      "bill": 4384,
      "dried": 4385,
      "compl": 4386,
      "tled": 4387,
      "hesit": 4388,
      "members": 4389,
      "pride": 4390,
      "sparkling": 4391,
      "ggy": 4392,
      "hurricane": 4393,
      "Ha": 4394,
      "ging": 4395,
      "raz": 4396,
      "hanger": 4397,
      "dinosaurs": 4398,
      "sters": 4399,
      "brings": 4400,
      "ipment": 4401,
      "eagle": 4402,
      "vehicle": 4403,
      "Mmm": 4404,
      "insisted": 4405,
      "equipment": 4406,
      "bites": 4407,
      "decorations": 4408,
      "oxy": 4409,
      "Ollie": 4410,
      "friger": 4411,
      "offic": 4412,
      "chores": 4413,
      "washing": 4414,
      "remained": 4415,
      "Coco": 4416,
      "Spike": 4417,
      "razor": 4418,
      "!'": 4419,
      "orang": 4420,
      "floated": 4421,
      "destination": 4422,
      "Exc": 4423,
      "frigerator": 4424,
      "oranges": 4425,
      "Zoe": 4426,
      "hits": 4427,
      "decis": 4428,
      "permission": 4429,
      "Katie": 4430,
      "chirping": 4431,
      "dam": 4432,
      "married": 4433,
      "moments": 4434,
      "Penny": 4435,
      "refrigerator": 4436,
      "ometer": 4437,
      "spending": 4438,
      "wardrobe": 4439,
      "float": 4440,
      "harbor": 4441,
      "uggle": 4442,
      "Betsy": 4443,
      "scooped": 4444,
      "sprinkles": 4445,
      "dic": 4446,
      "mometer": 4447,
      "thermometer": 4448,
      "brain": 4449,
      "bookshelf": 4450,
      "fixing": 4451,
      "calend": 4452,
      "jewels": 4453,
      "punish": 4454,
      "disturb": 4455,
      "bab": 4456,
      "hers": 4457,
      "sparkle": 4458,
      "lily": 4459,
      "David": 4460,
      "Buzz": 4461,
      "repeat": 4462,
      "crun": 4463,
      "fastest": 4464,
      "bravely": 4465,
      "diction": 4466,
      "thrilled": 4467,
      "sneezed": 4468,
      "suffer": 4469,
      "proper": 4470,
      "dictionary": 4471,
      "oh": 4472,
      "pages": 4473,
      "wizard": 4474,
      "zag": 4475,
      "leak": 4476,
      "signs": 4477,
      "glowed": 4478,
      "insect": 4479,
      "automobile": 4480,
      "Sunny": 4481,
      "zipped": 4482,
      "toe": 4483,
      "golf": 4484,
      "uggling": 4485,
      "praised": 4486,
      "oak": 4487,
      "bbie": 4488,
      "settled": 4489,
      "drinks": 4490,
      "tomatoes": 4491,
      "tour": 4492,
      "chy": 4493,
      "cuddled": 4494,
      "approached": 4495,
      "wigg": 4496,
      "rang": 4497,
      "homes": 4498,
      "prepare": 4499,
      "skipping": 4500,
      "bathrobe": 4501,
      "daisy": 4502,
      "calendar": 4503,
      "Ke": 4504,
      "taller": 4505,
      "solved": 4506,
      "flav": 4507,
      "obey": 4508,
      "beef": 4509,
      "prayed": 4510,
      "vy": 4511,
      "upstairs": 4512,
      "buried": 4513,
      "spike": 4514,
      "spade": 4515,
      "perm": 4516,
      "airplane": 4517,
      "patiently": 4518,
      "vacation": 4519,
      "muscle": 4520,
      "gifts": 4521,
      "panic": 4522,
      "collection": 4523,
      "heat": 4524,
      "plates": 4525,
      "antly": 4526,
      "opera": 4527,
      "sunrise": 4528,
      "floating": 4529,
      "lemonade": 4530,
      "scattered": 4531,
      "buzzing": 4532,
      "fut": 4533,
      "infant": 4534,
      "girls": 4535,
      "future": 4536,
      "Ouch": 4537,
      "nies": 4538,
      "worse": 4539,
      "shot": 4540,
      "cartoons": 4541,
      "cobweb": 4542,
      "tide": 4543,
      "tease": 4544,
      "yawned": 4545,
      "apron": 4546,
      "twisted": 4547,
      "universe": 4548,
      "film": 4549,
      "Gre": 4550,
      "ddy": 4551,
      "bleed": 4552,
      "strangers": 4553,
      "folded": 4554,
      "Bubb": 4555,
      "comp": 4556,
      "pedal": 4557,
      "sparkles": 4558,
      "strawberries": 4559,
      "whistled": 4560,
      "Quack": 4561,
      "paints": 4562,
      "nce": 4563,
      "beat": 4564,
      "grinned": 4565,
      "fied": 4566,
      "œIâ": 4567,
      "weeks": 4568,
      "examine": 4569,
      "surrounded": 4570,
      "Sharing": 4571,
      "sed": 4572,
      "fuel": 4573,
      "exercise": 4574,
      "Zoom": 4575,
      "œThank": 4576,
      "thumb": 4577,
      "oper": 4578,
      "wherever": 4579,
      "actually": 4580,
      "shooting": 4581,
      "stam": 4582,
      "hills": 4583,
      "drinking": 4584,
      "Goodbye": 4585,
      "bricks": 4586,
      "lick": 4587,
      "parts": 4588,
      "grey": 4589,
      "Something": 4590,
      "patterns": 4591,
      "Mo": 4592,
      "bak": 4593,
      "event": 4594,
      "history": 4595,
      "melted": 4596,
      "rhy": 4597,
      "Liz": 4598,
      "receive": 4599,
      "during": 4600,
      "urge": 4601,
      "stom": 4602,
      "spill": 4603,
      "neighborhood": 4604,
      "brick": 4605,
      "scatter": 4606,
      "igzag": 4607,
      "fetch": 4608,
      "œThatâ": 4609,
      "ef": 4610,
      "beha": 4611,
      "weren": 4612,
      "setting": 4613,
      "scur": 4614,
      "Jam": 4615,
      "umble": 4616,
      "jogging": 4617,
      "wooden": 4618,
      "deeper": 4619,
      "struggling": 4620,
      "Like": 4621,
      "cin": 4622,
      "weap": 4623,
      "plays": 4624,
      "umes": 4625,
      "emer": 4626,
      "sunlight": 4627,
      "difference": 4628,
      "contain": 4629,
      "seats": 4630,
      "curled": 4631,
      "lets": 4632,
      "watches": 4633,
      "score": 4634,
      "Really": 4635,
      "tune": 4636,
      "billboard": 4637,
      "Kay": 4638,
      "brand": 4639,
      "joyed": 4640,
      "printer": 4641,
      "elephants": 4642,
      "pigs": 4643,
      "scratched": 4644,
      "orts": 4645,
      "fari": 4646,
      "glitter": 4647,
      "For": 4648,
      "stomach": 4649,
      "everyday": 4650,
      "overjoyed": 4651,
      "satis": 4652,
      "Hanna": 4653,
      "Rob": 4654,
      "ric": 4655,
      "Anne": 4656,
      "wre": 4657,
      "gotten": 4658,
      "talent": 4659,
      "guessed": 4660,
      "safari": 4661,
      "happiest": 4662,
      "kindly": 4663,
      "pupp": 4664,
      "mountains": 4665,
      "potatoes": 4666,
      "costumes": 4667,
      "mineral": 4668,
      "Lu": 4669,
      "acorns": 4670,
      "memory": 4671,
      "Jeff": 4672,
      "uses": 4673,
      "growl": 4674,
      "nation": 4675,
      "sliding": 4676,
      "Remember": 4677,
      "measuring": 4678,
      "Mor": 4679,
      "fas": 4680,
      "ities": 4681,
      "paused": 4682,
      "collecting": 4683,
      "mitten": 4684,
      "petted": 4685,
      "clearing": 4686,
      "whistling": 4687,
      "Sunday": 4688,
      "manage": 4689,
      "problems": 4690,
      "fy": 4691,
      "ues": 4692,
      "zing": 4693,
      "onwards": 4694,
      "chip": 4695,
      "teaspo": 4696,
      "covery": 4697,
      "muddy": 4698,
      "discovery": 4699,
      "Donâ": 4700,
      "doggy": 4701,
      "settle": 4702,
      "Floppy": 4703,
      "measured": 4704,
      "invitation": 4705,
      "chat": 4706,
      "ium": 4707,
      "beside": 4708,
      "atch": 4709,
      "iggling": 4710,
      "raised": 4711,
      "Rab": 4712,
      "wed": 4713,
      "quake": 4714,
      "buildings": 4715,
      "palm": 4716,
      "Nina": 4717,
      "Ye": 4718,
      "Yum": 4719,
      "pastry": 4720,
      "burning": 4721,
      "lest": 4722,
      "pets": 4723,
      "rested": 4724,
      "continue": 4725,
      "osed": 4726,
      "supposed": 4727,
      "Betty": 4728,
      "ishes": 4729,
      "neath": 4730,
      "flood": 4731,
      "planted": 4732,
      "weight": 4733,
      "peered": 4734,
      "crashed": 4735,
      "blackboard": 4736,
      "circus": 4737,
      "meowed": 4738,
      "Jamie": 4739,
      "Hannah": 4740,
      "fascin": 4741,
      "\",": 4742,
      "sore": 4743,
      "laid": 4744,
      "chewed": 4745,
      "tremble": 4746,
      "admiring": 4747,
      "bun": 4748,
      "mice": 4749,
      "lips": 4750,
      "tracks": 4751,
      "Cla": 4752,
      "Fro": 4753,
      "remembers": 4754,
      "peaches": 4755,
      "twigs": 4756,
      "peanuts": 4757,
      "company": 4758,
      "By": 4759,
      "knel": 4760,
      "indy": 4761,
      "sings": 4762,
      "pillows": 4763,
      "selling": 4764,
      "chirped": 4765,
      "flavor": 4766,
      "rhyth": 4767,
      "knelt": 4768,
      "waits": 4769,
      "esca": 4770,
      "nails": 4771,
      "responsible": 4772,
      "Aunt": 4773,
      "Nut": 4774,
      "hated": 4775,
      "slip": 4776,
      "nicer": 4777,
      "earthquake": 4778,
      "fireworks": 4779,
      "ssssssss": 4780,
      "grocery": 4781,
      "Rabbit": 4782,
      "hoo": 4783,
      "pops": 4784,
      "famil": 4785,
      "bowed": 4786,
      "ends": 4787,
      "!\",": 4788,
      "accompl": 4789,
      "watered": 4790,
      "rained": 4791,
      "disagreed": 4792,
      "mailman": 4793,
      "observe": 4794,
      "cuddle": 4795,
      "prepared": 4796,
      "teaspoon": 4797,
      "escaped": 4798,
      "bi": 4799,
      "iers": 4800,
      "irp": 4801,
      "owned": 4802,
      "Chirp": 4803,
      "loaded": 4804,
      "nie": 4805,
      "pitch": 4806,
      "sla": 4807,
      "refre": 4808,
      "sidewalk": 4809,
      "mister": 4810,
      "refreshed": 4811,
      "Spark": 4812,
      "fash": 4813,
      "swo": 4814,
      "waist": 4815,
      "unic": 4816,
      "racing": 4817,
      "steel": 4818,
      "hurried": 4819,
      "wisdom": 4820,
      "jazz": 4821,
      "zigzag": 4822,
      "Thom": 4823,
      "olive": 4824,
      "adium": 4825,
      "easier": 4826,
      "practicing": 4827,
      "officer": 4828,
      "crunchy": 4829,
      "sages": 4830,
      "stadium": 4831,
      "Itâ": 4832,
      "dresses": 4833,
      "solut": 4834,
      "revealed": 4835,
      "Moral": 4836,
      "grape": 4837,
      "attached": 4838,
      "menu": 4839,
      "agreement": 4840,
      "Big": 4841,
      "policeman": 4842,
      "spaceship": 4843,
      "six": 4844,
      "œCan": 4845,
      "wagging": 4846,
      "rust": 4847,
      "secrets": 4848,
      "piles": 4849,
      "Sadly": 4850,
      "west": 4851,
      "beds": 4852,
      "underneath": 4853,
      "wonders": 4854,
      "cutting": 4855,
      "machines": 4856,
      "beg": 4857,
      "unite": 4858,
      "socks": 4859,
      "items": 4860,
      "mixing": 4861,
      "writ": 4862,
      "Uncle": 4863,
      "Luna": 4864,
      "exact": 4865,
      "trapped": 4866,
      "Sh": 4867,
      "peel": 4868,
      "buckets": 4869,
      "choo": 4870,
      "bene": 4871,
      "tickets": 4872,
      "fashion": 4873,
      "Jan": 4874,
      "brid": 4875,
      "wondering": 4876,
      "screams": 4877,
      "soldiers": 4878,
      "Always": 4879,
      "pupil": 4880,
      "burrow": 4881,
      "recognized": 4882,
      "Thomas": 4883,
      "shopping": 4884,
      "comforted": 4885,
      "breaking": 4886,
      "zooming": 4887,
      "rides": 4888,
      "united": 4889,
      "copper": 4890,
      "jogged": 4891,
      "works": 4892,
      "spoons": 4893,
      "activ": 4894,
      "style": 4895,
      "introduc": 4896,
      "rhythm": 4897,
      "underground": 4898,
      "price": 4899,
      "shivering": 4900,
      "rs": 4901,
      "exit": 4902,
      "precious": 4903,
      "ffic": 4904,
      "decision": 4905,
      "lung": 4906,
      "sadness": 4907,
      "turning": 4908,
      "bones": 4909,
      "ica": 4910,
      "challen": 4911,
      "bringing": 4912,
      "villag": 4913,
      "punished": 4914,
      "weapon": 4915,
      "Cindy": 4916,
      "soaring": 4917,
      "competition": 4918,
      "succeeded": 4919,
      "oxygen": 4920,
      "bridges": 4921,
      "Mic": 4922,
      "simp": 4923,
      "seag": 4924,
      "visiting": 4925,
      "seagull": 4926,
      "Mir": 4927,
      "dent": 4928,
      "sides": 4929,
      "ppers": 4930,
      "aren": 4931,
      "navy": 4932,
      "monsters": 4933,
      "tastes": 4934,
      "ordered": 4935,
      "stored": 4936,
      "perched": 4937,
      "Out": 4938,
      "mare": 4939,
      "rul": 4940,
      "vin": 4941,
      "herb": 4942,
      "comfy": 4943,
      "chef": 4944,
      "yelling": 4945,
      "stealing": 4946,
      "disturbed": 4947,
      "lect": 4948,
      "blueberry": 4949,
      "Nutty": 4950,
      "Hop": 4951,
      "inch": 4952,
      "whatever": 4953,
      "anytime": 4954,
      "answers": 4955,
      "grandmother": 4956,
      "decorated": 4957,
      "increase": 4958,
      "beneath": 4959,
      "œWe": 4960,
      "iders": 4961,
      "inda": 4962,
      "caut": 4963,
      "mouths": 4964,
      "shadows": 4965,
      "fer": 4966,
      "kins": 4967,
      "osity": 4968,
      "ripped": 4969,
      "network": 4970,
      "recognize": 4971,
      "Watch": 4972,
      "giggling": 4973,
      "creation": 4974,
      "eats": 4975,
      "nightmare": 4976,
      "printed": 4977,
      "stripes": 4978,
      "pearl": 4979,
      "exactly": 4980,
      "aded": 4981,
      "wanting": 4982,
      "Remy": 4983,
      "lemons": 4984,
      "soared": 4985,
      "introduce": 4986,
      "demanded": 4987,
      "permit": 4988,
      "operation": 4989,
      "downstairs": 4990,
      "sterday": 4991,
      "winner": 4992,
      "iggy": 4993,
      "freeze": 4994,
      "Nick": 4995,
      "Pr": 4996,
      "instruct": 4997,
      "voices": 4998,
      "gained": 4999,
      "Adam": 5000,
      "rele": 5001,
      "unlocked": 5002,
      "doctors": 5003,
      "ourselves": 5004,
      "marching": 5005,
      "instructions": 5006,
      "lu": 5007,
      "lugg": 5008,
      "loe": 5009,
      "stro": 5010,
      "Chloe": 5011,
      "confident": 5012,
      "Those": 5013,
      "Julie": 5014,
      "villagers": 5015,
      "simple": 5016,
      "Abby": 5017,
      "De": 5018,
      "Fol": 5019,
      "herbs": 5020,
      "outdoors": 5021,
      "Leave": 5022,
      "Jessie": 5023,
      "oats": 5024,
      "Follow": 5025,
      "ising": 5026,
      "situ": 5027,
      "strings": 5028,
      "rescu": 5029,
      "Tilly": 5030,
      "prints": 5031,
      "bouncy": 5032,
      "reminder": 5033,
      "bare": 5034,
      "soak": 5035,
      "letâ": 5036,
      "curiosity": 5037,
      "brushed": 5038,
      "shivered": 5039,
      "Suzy": 5040,
      "argued": 5041,
      "recommend": 5042,
      "encourage": 5043,
      "area": 5044,
      "izing": 5045,
      "aky": 5046,
      "leather": 5047,
      "nexpected": 5048,
      "planned": 5049,
      "zookeeper": 5050,
      "gathering": 5051,
      "sights": 5052,
      "studying": 5053,
      "yawn": 5054,
      "bleeding": 5055,
      "ky": 5056,
      "unexpected": 5057,
      "rol": 5058,
      "examined": 5059,
      "emergen": 5060,
      "begin": 5061,
      "lecture": 5062,
      "sire": 5063,
      "Chirpy": 5064,
      "siren": 5065,
      "Pip": 5066,
      "ibb": 5067,
      "vic": 5068,
      "pect": 5069,
      "crept": 5070,
      "catching": 5071,
      "properly": 5072,
      "fascinated": 5073,
      "roo": 5074,
      "opin": 5075,
      "brushes": 5076,
      "twirling": 5077,
      "struck": 5078,
      "unicorn": 5079,
      "ago": 5080,
      "gloves": 5081,
      "urged": 5082,
      "spiders": 5083,
      "slim": 5084,
      "guys": 5085,
      "Jenna": 5086,
      "scurried": 5087,
      "Bir": 5088,
      "Lou": 5089,
      "shock": 5090,
      "control": 5091,
      "traffic": 5092,
      "struggled": 5093,
      "velvet": 5094,
      "apologize": 5095,
      "pebbles": 5096,
      "sneaked": 5097,
      "wreck": 5098,
      "challenge": 5099,
      "Len": 5100,
      "Wo": 5101,
      "bank": 5102,
      "learns": 5103,
      "drag": 5104,
      "satisfied": 5105,
      "writes": 5106,
      "luggage": 5107,
      "Mon": 5108,
      "hest": 5109,
      "release": 5110,
      "claps": 5111,
      "tiest": 5112,
      "tickle": 5113,
      "stamps": 5114,
      "Linda": 5115,
      "Our": 5116,
      "pies": 5117,
      "œLook": 5118,
      "expect": 5119,
      "prettiest": 5120,
      "teasing": 5121,
      "landscape": 5122,
      "Dolly": 5123,
      "loving": 5124,
      "smar": 5125,
      "master": 5126,
      "blink": 5127,
      "Both": 5128,
      "Afterwards": 5129,
      "sisters": 5130,
      "studied": 5131,
      "Julia": 5132,
      "strip": 5133,
      "tex": 5134,
      "vow": 5135,
      "zie": 5136,
      "œDonâ": 5137,
      "nes": 5138,
      "lip": 5139,
      "decides": 5140,
      "budge": 5141,
      "firemen": 5142,
      "Suzie": 5143,
      "mentioned": 5144,
      "released": 5145,
      "texture": 5146,
      "bunch": 5147,
      "pears": 5148,
      "draws": 5149,
      "sniff": 5150,
      "...": 5151,
      "hunt": 5152,
      "sled": 5153,
      "grant": 5154,
      "realize": 5155,
      "winning": 5156,
      "strum": 5157,
      "stirring": 5158,
      "weighed": 5159,
      "flutter": 5160,
      "En": 5161,
      "tugged": 5162,
      "goodnight": 5163,
      "cubes": 5164,
      "image": 5165,
      "deser": 5166,
      "strike": 5167,
      "muscles": 5168,
      "Kayla": 5169,
      "broom": 5170,
      "ranger": 5171,
      "shoulders": 5172,
      "firefight": 5173,
      "baked": 5174,
      "powers": 5175,
      "marks": 5176,
      "sweets": 5177,
      "chases": 5178,
      "accidents": 5179,
      "protected": 5180,
      "poems": 5181,
      "Claire": 5182,
      "ruler": 5183,
      "œWhy": 5184,
      "€”": 5185,
      "safer": 5186,
      "homework": 5187,
      "horns": 5188,
      "slapped": 5189,
      "Put": 5190,
      "mater": 5191,
      "zero": 5192,
      "motion": 5193,
      "pockets": 5194,
      "surface": 5195,
      "ribbons": 5196,
      "supplies": 5197,
      "materi": 5198,
      "wink": 5199,
      "stole": 5200,
      "ledge": 5201,
      "importance": 5202,
      "patience": 5203,
      "vanish": 5204,
      "repeated": 5205,
      "lines": 5206,
      "chewing": 5207,
      "figured": 5208,
      "librarian": 5209,
      "Luke": 5210,
      "Rover": 5211,
      "Tiny": 5212,
      "neighbors": 5213,
      "stretching": 5214,
      "Bubbles": 5215,
      "introduced": 5216,
      "emergency": 5217,
      "Mart": 5218,
      "Uh": 5219,
      "cough": 5220,
      "zen": 5221,
      "soaked": 5222,
      "hugging": 5223,
      "cones": 5224,
      "cub": 5225,
      "pouring": 5226,
      "applauded": 5227,
      ".'": 5228,
      "Bad": 5229,
      "Pi": 5230,
      "foods": 5231,
      "achieve": 5232,
      "babies": 5233,
      "slimy": 5234,
      "œThis": 5235,
      "loose": 5236,
      "keeps": 5237,
      "barely": 5238,
      "Get": 5239,
      "removed": 5240,
      "stitch": 5241,
      "rac": 5242,
      "bravery": 5243,
      "vowed": 5244,
      "eight": 5245,
      "ks": 5246,
      "poking": 5247,
      "xu": 5248,
      "shelves": 5249,
      "weed": 5250,
      "shined": 5251,
      "Lucky": 5252,
      "wound": 5253,
      "zes": 5254,
      "beard": 5255,
      "canâ": 5256,
      "parked": 5257,
      "wallow": 5258,
      "catches": 5259,
      "steep": 5260,
      "struggle": 5261,
      "discovering": 5262,
      "muffins": 5263,
      "effort": 5264,
      "cautious": 5265,
      "Lizzy": 5266,
      "mittens": 5267,
      "swallow": 5268,
      "entire": 5269,
      "truly": 5270,
      "purred": 5271,
      "screaming": 5272,
      "haust": 5273,
      "expected": 5274,
      "sports": 5275,
      "pretends": 5276,
      "inviting": 5277,
      "Hoppy": 5278,
      "Carl": 5279,
      "irm": 5280,
      "nect": 5281,
      "knowledge": 5282,
      "frosting": 5283,
      "Susan": 5284,
      "guns": 5285,
      "prunes": 5286,
      "exhaust": 5287,
      "staring": 5288,
      "sorted": 5289,
      "uct": 5290,
      "storekeeper": 5291,
      "silence": 5292,
      "completed": 5293,
      "travell": 5294,
      "Mira": 5295,
      "victory": 5296,
      "Sant": 5297,
      "sorting": 5298,
      "rings": 5299,
      "kicking": 5300,
      "pancakes": 5301,
      "result": 5302,
      "neighbourhood": 5303,
      "Excuse": 5304,
      "Santa": 5305,
      "Mi": 5306,
      "Tues": 5307,
      "sen": 5308,
      "vies": 5309,
      "nets": 5310,
      "sobb": 5311,
      "acted": 5312,
      "frozen": 5313,
      "highest": 5314,
      "markers": 5315,
      "cheering": 5316,
      "curtains": 5317,
      "solution": 5318,
      "Lul": 5319,
      "die": 5320,
      "heel": 5321,
      "movies": 5322,
      "tractor": 5323,
      "growling": 5324,
      "rubbing": 5325,
      "luxu": 5326,
      "Fri": 5327,
      "Wed": 5328,
      "cash": 5329,
      "rist": 5330,
      "replaced": 5331,
      "guest": 5332,
      "Wednes": 5333,
      "east": 5334,
      "vided": 5335,
      "ripe": 5336,
      "roses": 5337,
      "fully": 5338,
      "crumb": 5339,
      "project": 5340,
      "curly": 5341,
      "camping": 5342,
      "swoop": 5343,
      "firm": 5344,
      "ler": 5345,
      "tles": 5346,
      "worries": 5347,
      "sticking": 5348,
      "packing": 5349,
      "Bon": 5350,
      "Slow": 5351,
      "freed": 5352,
      "youâ": 5353,
      "rocking": 5354,
      "sweeties": 5355,
      "arriage": 5356,
      "radishes": 5357,
      "flags": 5358,
      "planets": 5359,
      "countryside": 5360,
      "rr": 5361,
      "ruin": 5362,
      "bottles": 5363,
      "reaching": 5364,
      "recorded": 5365,
      "bloomed": 5366,
      "twinkling": 5367,
      "chips": 5368,
      "situation": 5369,
      "exhausted": 5370,
      "Matt": 5371,
      "olives": 5372,
      "œHello": 5373,
      "lied": 5374,
      "ults": 5375,
      "Nothing": 5376,
      "stron": 5377,
      "roaring": 5378,
      "Jessica": 5379,
      "waffles": 5380,
      "balancing": 5381,
      "Fe": 5382,
      "Two": 5383,
      "fab": 5384,
      "blooming": 5385,
      "sausages": 5386,
      "include": 5387,
      "traveled": 5388,
      "direction": 5389,
      "accomplish": 5390,
      "Ba": 5391,
      "Run": 5392,
      "rip": 5393,
      "Time": 5394,
      "jects": 5395,
      "Christ": 5396,
      "pencils": 5397,
      "trembling": 5398,
      "reveal": 5399,
      "cert": 5400,
      "nibb": 5401,
      "tonight": 5402,
      "goals": 5403,
      "colored": 5404,
      "disagree": 5405,
      "touching": 5406,
      "tails": 5407,
      "passing": 5408,
      "flap": 5409,
      "recording": 5410,
      "lollipops": 5411,
      "dared": 5412,
      "faced": 5413,
      "threat": 5414,
      "startled": 5415,
      "pinched": 5416,
      "Keep": 5417,
      "uctantly": 5418,
      "Ah": 5419,
      "irts": 5420,
      "boom": 5421,
      "usually": 5422,
      "angled": 5423,
      "signed": 5424,
      "written": 5425,
      "regretted": 5426,
      "bunnies": 5427,
      "activities": 5428,
      "bend": 5429,
      "youn": 5430,
      "seesaw": 5431,
      "Boo": 5432,
      "relief": 5433,
      "copy": 5434,
      "sighs": 5435,
      "paddled": 5436,
      "pastels": 5437,
      "Ja": 5438,
      "Pandy": 5439,
      "Sur": 5440,
      "aster": 5441,
      "gle": 5442,
      "caused": 5443,
      "rubs": 5444,
      "dragged": 5445,
      "creating": 5446,
      "dies": 5447,
      "scra": 5448,
      "immer": 5449,
      "stare": 5450,
      "Prin": 5451,
      "Jacob": 5452,
      "Bird": 5453,
      "Pinky": 5454,
      "sway": 5455,
      "resting": 5456,
      "roads": 5457,
      "videos": 5458,
      "awesome": 5459,
      "Tuesday": 5460,
      "Wednesday": 5461,
      "fabric": 5462,
      "Mat": 5463,
      "isies": 5464,
      "outfit": 5465,
      "theirs": 5466,
      "ventured": 5467,
      "gazed": 5468,
      "Christmas": 5469,
      "ranny": 5470,
      "ctions": 5471,
      "provided": 5472,
      "patted": 5473,
      "rescued": 5474,
      "pite": 5475,
      "œWhatâ": 5476,
      "dragons": 5477,
      "Tara": 5478,
      "season": 5479,
      "timer": 5480,
      "robb": 5481,
      "however": 5482,
      "odd": 5483,
      "rance": 5484,
      "cashier": 5485,
      "rees": 5486,
      "scarves": 5487,
      "matched": 5488,
      "wasnâ": 5489,
      "daisies": 5490,
      "prayer": 5491,
      "twinkle": 5492,
      "Day": 5493,
      "marriage": 5494,
      "isten": 5495,
      "stern": 5496,
      "bars": 5497,
      "princesses": 5498,
      "splashes": 5499,
      "Ame": 5500,
      "Many": 5501,
      "ib": 5502,
      "snail": 5503,
      "owners": 5504,
      "icky": 5505,
      "squealed": 5506,
      "crackers": 5507,
      "Sparky": 5508,
      "Lulu": 5509,
      "Listen": 5510,
      "€˜": 5511,
      "wasted": 5512,
      "acting": 5513,
      "singer": 5514,
      "rainbows": 5515,
      "Quick": 5516,
      "becoming": 5517,
      "chuck": 5518,
      "shaped": 5519,
      "reluctantly": 5520,
      "crowd": 5521,
      "Enjoy": 5522,
      "ud": 5523,
      "restored": 5524,
      "fault": 5525,
      "rocked": 5526,
      "paintings": 5527,
      "June": 5528,
      "wires": 5529,
      "beyond": 5530,
      "Squ": 5531,
      "bumpy": 5532,
      "œOh": 5533,
      "plent": 5534,
      "igi": 5535,
      "youth": 5536,
      "rockets": 5537,
      "flat": 5538,
      "Being": 5539,
      "wedding": 5540,
      "opinion": 5541,
      "Jones": 5542,
      "chop": 5543,
      "Johnson": 5544,
      "laying": 5545,
      "Woof": 5546,
      "luxury": 5547,
      "plenty": 5548,
      "pout": 5549,
      "remo": 5550,
      "amb": 5551,
      "workers": 5552,
      "Doggy": 5553,
      "opening": 5554,
      "froze": 5555,
      "faraway": 5556,
      "ences": 5557,
      "complaining": 5558,
      "kneeled": 5559,
      "performan": 5560,
      "Yeah": 5561,
      "Sim": 5562,
      "ists": 5563,
      "mane": 5564,
      "speaking": 5565,
      "woof": 5566,
      "snakes": 5567,
      "Stay": 5568,
      "dusty": 5569,
      "balanced": 5570,
      "cautiously": 5571,
      "swooped": 5572,
      "performance": 5573,
      "Pam": 5574,
      "ki": 5575,
      "sequ": 5576,
      "pots": 5577,
      "rule": 5578,
      "rusty": 5579,
      "kites": 5580,
      "flames": 5581,
      "drives": 5582,
      "health": 5583,
      "clowns": 5584,
      "leading": 5585,
      "affes": 5586,
      "quacked": 5587,
      "applaud": 5588,
      "thro": 5589,
      "arrive": 5590,
      "giraffes": 5591,
      "Princess": 5592,
      "Fox": 5593,
      "orted": 5594,
      "ppa": 5595,
      "agrees": 5596,
      "Beep": 5597,
      "seeker": 5598,
      "fluttered": 5599,
      "gar": 5600,
      "fever": 5601,
      "iley": 5602,
      "misses": 5603,
      "delivery": 5604,
      "cracked": 5605,
      "Stella": 5606,
      "jamas": 5607,
      "nectar": 5608,
      "Gigi": 5609,
      "Jon": 5610,
      "yum": 5611,
      "ads": 5612,
      "cuts": 5613,
      "ladybug": 5614,
      "coloured": 5615,
      "fuzzy": 5616,
      "arguing": 5617,
      "directions": 5618,
      "puppet": 5619,
      "Lena": 5620,
      "crumbs": 5621,
      "remote": 5622,
      "--": 5623,
      "iar": 5624,
      "pens": 5625,
      "backed": 5626,
      "everybody": 5627,
      "flake": 5628,
      "interested": 5629,
      "folding": 5630,
      "wiggled": 5631,
      "baker": 5632,
      "throat": 5633,
      "Fion": 5634,
      "Fine": 5635,
      "Fire": 5636,
      "lies": 5637,
      "cot": 5638,
      "contest": 5639,
      "consequ": 5640,
      "waiter": 5641,
      "darkness": 5642,
      "snowballs": 5643,
      "cupcakes": 5644,
      "winked": 5645,
      "partic": 5646,
      "crabs": 5647,
      "matching": 5648,
      "Milo": 5649,
      "completely": 5650,
      "behavi": 5651,
      "familiar": 5652,
      "Slowly": 5653,
      "accomplishment": 5654,
      "Fiona": 5655,
      "Wil": 5656,
      "sew": 5657,
      "reply": 5658,
      "insist": 5659,
      "darker": 5660,
      "celebration": 5661,
      "pedals": 5662,
      "fairies": 5663,
      "wouldnâ": 5664,
      "valued": 5665,
      "dipped": 5666,
      "warn": 5667,
      "spraying": 5668,
      "bumps": 5669,
      "insects": 5670,
      "groceries": 5671,
      "roots": 5672,
      "Amelia": 5673,
      "wow": 5674,
      "ility": 5675,
      "somebody": 5676,
      "creations": 5677,
      "slam": 5678,
      "marked": 5679,
      "organizing": 5680,
      "basement": 5681,
      "Take": 5682,
      "cure": 5683,
      "fted": 5684,
      "yan": 5685,
      "pajamas": 5686,
      "swirl": 5687,
      "attack": 5688,
      "sweat": 5689,
      "towels": 5690,
      "scales": 5691,
      "sobbed": 5692,
      "allo": 5693,
      "rious": 5694,
      "closes": 5695,
      "swims": 5696,
      "desert": 5697,
      "delivered": 5698,
      "cheeks": 5699,
      "Surpr": 5700,
      "opp": 5701,
      "instrum": 5702,
      "itches": 5703,
      "umbling": 5704,
      "worker": 5705,
      "actions": 5706,
      "blows": 5707,
      "peeking": 5708,
      "spikes": 5709,
      "scaring": 5710,
      "stem": 5711,
      "dresser": 5712,
      "bowls": 5713,
      "polished": 5714,
      "included": 5715,
      "sneaky": 5716,
      "Martha": 5717,
      "chuckled": 5718,
      "Yummy": 5719,
      "slap": 5720,
      "hissed": 5721,
      "teaches": 5722,
      "dolphins": 5723,
      "consequences": 5724,
      "Binky": 5725,
      "Lau": 5726,
      "Sque": 5727,
      "tangled": 5728,
      "œLet": 5729,
      "wadd": 5730,
      "leader": 5731,
      "improved": 5732,
      "talented": 5733,
      "particular": 5734,
      "Laura": 5735,
      "Bess": 5736,
      "len": 5737,
      "masks": 5738,
      "forehead": 5739,
      "filling": 5740,
      "trips": 5741,
      "rolls": 5742,
      "mination": 5743,
      "determination": 5744,
      "knights": 5745,
      "photos": 5746,
      "gaze": 5747,
      "Jazz": 5748,
      "rever": 5749,
      "handful": 5750,
      "listens": 5751,
      "magnets": 5752,
      "Without": 5753,
      "mesmer": 5754,
      "seems": 5755,
      "wandering": 5756,
      "behaved": 5757,
      "aut": 5758,
      "tier": 5759,
      "stain": 5760,
      "Momo": 5761,
      "Any": 5762,
      "tricked": 5763,
      "Excited": 5764,
      "Sof": 5765,
      "logs": 5766,
      "liqu": 5767,
      "entrance": 5768,
      "prettier": 5769,
      "creamy": 5770,
      "wears": 5771,
      "adding": 5772,
      "calmed": 5773,
      "melting": 5774,
      "penguins": 5775,
      "liquid": 5776,
      "Water": 5777,
      "awake": 5778,
      "fits": 5779,
      "gross": 5780,
      "refle": 5781,
      "seven": 5782,
      "secure": 5783,
      "deal": 5784,
      "yourselves": 5785,
      "teased": 5786,
      "staying": 5787,
      "single": 5788,
      "corners": 5789,
      "drums": 5790,
      "polishing": 5791,
      "Ear": 5792,
      "ien": 5793,
      "sense": 5794,
      "tty": 5795,
      "anger": 5796,
      "healed": 5797,
      "swept": 5798,
      "belly": 5799,
      "knees": 5800,
      "materials": 5801,
      "?'": 5802,
      "Choo": 5803,
      "Mine": 5804,
      "Zip": 5805,
      "dents": 5806,
      "ners": 5807,
      "miles": 5808,
      "salty": 5809,
      "hallway": 5810,
      "glee": 5811,
      "Sofia": 5812,
      "toed": 5813,
      "toss": 5814,
      "igning": 5815,
      "shirts": 5816,
      "peppers": 5817,
      "naps": 5818,
      "source": 5819,
      "tigers": 5820,
      "Sadie": 5821,
      "honk": 5822,
      "lamb": 5823,
      "onions": 5824,
      "explorers": 5825,
      "snat": 5826,
      "hider": 5827,
      "covers": 5828,
      "observed": 5829,
      "protecting": 5830,
      "silent": 5831,
      "smarter": 5832,
      "webs": 5833,
      "ortun": 5834,
      "mixture": 5835,
      "yesterday": 5836,
      "objects": 5837,
      "click": 5838,
      "gems": 5839,
      "œYouâ": 5840,
      "flakes": 5841,
      "Earth": 5842,
      "Granny": 5843,
      "dip": 5844,
      "Everybody": 5845,
      "stays": 5846,
      "heading": 5847,
      "counts": 5848,
      "Bee": 5849,
      "Chris": 5850,
      "tickled": 5851,
      "bakery": 5852,
      "Friends": 5853,
      "Ew": 5854,
      "Larry": 5855,
      "wins": 5856,
      "ware": 5857,
      "iles": 5858,
      "beloved": 5859,
      "pered": 5860,
      "bedtime": 5861,
      "printing": 5862,
      "pleasure": 5863,
      "farther": 5864,
      "kicks": 5865,
      "wipes": 5866,
      "Maya": 5867,
      "itor": 5868,
      "piggy": 5869,
      "œHi": 5870,
      "lower": 5871,
      "lighter": 5872,
      "pastries": 5873,
      "praying": 5874,
      "yells": 5875,
      "jackets": 5876,
      "avoid": 5877,
      "Frankie": 5878,
      "ssssssssssssssss": 5879,
      "Shh": 5880,
      "cous": 5881,
      "scor": 5882,
      "œMommy": 5883,
      "impossible": 5884,
      "neither": 5885,
      "urry": 5886,
      "lett": 5887,
      "drifted": 5888,
      "Sophia": 5889,
      "temper": 5890,
      "neighbours": 5891,
      "ivity": 5892,
      "hesitant": 5893,
      "puppies": 5894,
      "Pre": 5895,
      "Ryan": 5896,
      "ply": 5897,
      "mets": 5898,
      "helmets": 5899,
      "ruining": 5900,
      "Jacky": 5901,
      "reads": 5902,
      "bert": 5903,
      "parties": 5904,
      "Owl": 5905,
      "paddle": 5906,
      "Great": 5907,
      "Che": 5908,
      "Se": 5909,
      "Sasha": 5910,
      "mies": 5911,
      "among": 5912,
      "stolen": 5913,
      "item": 5914,
      "Too": 5915,
      "sparks": 5916,
      "peacefully": 5917,
      "shrinking": 5918,
      "Buzzy": 5919,
      "indeed": 5920,
      "tricky": 5921,
      "complained": 5922,
      "including": 5923,
      "minerals": 5924,
      "Jay": 5925,
      "tasks": 5926,
      "œCome": 5927,
      "anno": 5928,
      "Nobody": 5929,
      "steer": 5930,
      "squish": 5931,
      "sandcastles": 5932,
      "magician": 5933,
      "creativity": 5934,
      "batteries": 5935,
      "swans": 5936,
      "Judy": 5937,
      "chefs": 5938,
      "Lizz": 5939,
      "rect": 5940,
      "gobb": 5941,
      "raind": 5942,
      "potion": 5943,
      "students": 5944,
      "wrist": 5945,
      "burst": 5946,
      "achieved": 5947,
      "firefighters": 5948,
      "Days": 5949,
      "snatched": 5950,
      "temperature": 5951,
      "annoy": 5952,
      "Lizzie": 5953,
      "raindro": 5954,
      "Abbie": 5955,
      "Vroom": 5956,
      "wid": 5957,
      "inst": 5958,
      "cky": 5959,
      "Only": 5960,
      "snuck": 5961,
      "Emmy": 5962,
      "cuddly": 5963,
      "oatmeal": 5964,
      "hesitated": 5965,
      "beginning": 5966,
      "Very": 5967,
      "iled": 5968,
      "pecked": 5969,
      "tallest": 5970,
      "afterwards": 5971,
      "artist": 5972,
      "wrapping": 5973,
      "rising": 5974,
      "tiptoed": 5975,
      "weeping": 5976,
      "dentist": 5977,
      "freedom": 5978,
      "lettuce": 5979,
      "Hold": 5980,
      "lined": 5981,
      "ouch": 5982,
      "seas": 5983,
      "noses": 5984,
      "cans": 5985,
      "icked": 5986,
      "willing": 5987,
      "hearing": 5988,
      "bows": 5989,
      "twin": 5990,
      "hides": 5991,
      "char": 5992,
      "planning": 5993,
      "wishing": 5994,
      "Love": 5995,
      "arrows": 5996,
      "choices": 5997,
      "warnings": 5998,
      "stomped": 5999,
      "Squirrel": 6000,
      "Simon": 6001,
      "cent": 6002,
      "ker": 6003,
      "geese": 6004,
      "couple": 6005,
      "snowmen": 6006,
      "dances": 6007,
      "diving": 6008,
      "surroundings": 6009,
      "immering": 6010,
      "Ali": 6011,
      "Ki": 6012,
      "Karen": 6013,
      "center": 6014,
      "echo": 6015,
      "third": 6016,
      "?\",": 6017,
      "backwards": 6018,
      "grows": 6019,
      "paying": 6020,
      "flapping": 6021,
      "Whee": 6022,
      "loading": 6023,
      "wobbled": 6024,
      "Frog": 6025,
      "widened": 6026,
      "pad": 6027,
      "ude": 6028,
      "ths": 6029,
      "blings": 6030,
      "badge": 6031,
      "rivers": 6032,
      "pans": 6033,
      "blocking": 6034,
      "wiping": 6035,
      "slices": 6036,
      "fluttering": 6037,
      "10": 6038,
      "Fu": 6039,
      "hus": 6040,
      "adult": 6041,
      "playroom": 6042,
      "buying": 6043,
      "pennies": 6044,
      "candies": 6045,
      "Roar": 6046,
      "screwdriver": 6047,
      "siblings": 6048,
      "stroked": 6049,
      "Mikey": 6050,
      "Sn": 6051,
      "œWow": 6052,
      "losing": 6053,
      "hops": 6054,
      "moo": 6055,
      "snowball": 6056,
      "wrink": 6057,
      "uggles": 6058,
      "tunnels": 6059,
      "requested": 6060,
      "Squeaky": 6061,
      "husband": 6062,
      "Ca": 6063,
      "Up": 6064,
      "beads": 6065,
      "unpacked": 6066,
      "pause": 6067,
      "dollhouse": 6068,
      "grassy": 6069,
      "itchy": 6070,
      "touches": 6071,
      "discussed": 6072,
      "Kevin": 6073,
      "Mickey": 6074,
      "deserve": 6075,
      "waddled": 6076,
      "rumble": 6077,
      "peck": 6078,
      "streets": 6079,
      "smelling": 6080,
      "spoonful": 6081,
      "grandparents": 6082,
      "sneezing": 6083,
      "darling": 6084,
      "younger": 6085,
      "Honey": 6086,
      "Nor": 6087,
      "Unt": 6088,
      "joking": 6089,
      "mate": 6090,
      "ana": 6091,
      "dots": 6092,
      "pose": 6093,
      "least": 6094,
      "napkins": 6095,
      "psy": 6096,
      "rotten": 6097,
      "action": 6098,
      "dience": 6099,
      "decorating": 6100,
      "marker": 6101,
      "audience": 6102,
      "Until": 6103,
      "Along": 6104,
      "haw": 6105,
      "thorn": 6106,
      "skunk": 6107,
      "windy": 6108,
      "vanilla": 6109,
      "Stan": 6110,
      "Flopsy": 6111,
      "seconds": 6112,
      "recommended": 6113,
      "growls": 6114,
      "Auntie": 6115,
      "granted": 6116,
      "Kelly": 6117,
      "eted": 6118,
      "remembering": 6119,
      "dreamt": 6120,
      "visitor": 6121,
      "dived": 6122,
      "Meow": 6123,
      "Dani": 6124,
      "pumpkins": 6125,
      "leaning": 6126,
      "Baa": 6127,
      "gobbled": 6128,
      "Olive": 6129,
      "itude": 6130,
      "raincoat": 6131,
      "guy": 6132,
      "dancers": 6133,
      "sailboat": 6134,
      "ounce": 6135,
      "shops": 6136,
      "Farm": 6137,
      "Nice": 6138,
      "Since": 6139,
      "Todd": 6140,
      "œDo": 6141,
      "ids": 6142,
      "izon": 6143,
      "chosen": 6144,
      "twice": 6145,
      "colder": 6146,
      "horizon": 6147,
      "Pepper": 6148,
      "grandchild": 6149,
      "leads": 6150,
      "guests": 6151,
      "Am": 6152,
      "Madd": 6153,
      "œMy": 6154,
      "reass": 6155,
      "ory": 6156,
      "fears": 6157,
      "treehouse": 6158,
      "suits": 6159,
      "designed": 6160,
      "families": 6161,
      "Maddie": 6162,
      "astron": 6163,
      "ount": 6164,
      "atur": 6165,
      "plucked": 6166,
      "odles": 6167,
      "crew": 6168,
      "greeted": 6169,
      "snuggle": 6170,
      "curiously": 6171,
      "snowflakes": 6172,
      "travelled": 6173,
      "scraped": 6174,
      "La": 6175,
      "Ral": 6176,
      "bage": 6177,
      "til": 6178,
      "itched": 6179,
      "arran": 6180,
      "coloring": 6181,
      "grabbing": 6182,
      "scrubbed": 6183,
      "slips": 6184,
      "Robbie": 6185,
      "screws": 6186,
      "sailors": 6187,
      "stroke": 6188,
      "Birthday": 6189,
      "Bessie": 6190,
      "astronaut": 6191,
      "Ralph": 6192,
      "Abi": 6193,
      "During": 6194,
      "flight": 6195,
      "sim": 6196,
      "ades": 6197,
      "paired": 6198,
      "wonâ": 6199,
      "conne": 6200,
      "plans": 6201,
      "belts": 6202,
      "celebrating": 6203,
      "recipe": 6204,
      "zipping": 6205,
      "swallowed": 6206,
      "sending": 6207,
      "repaired": 6208,
      "wag": 6209,
      "aside": 6210,
      "forgetting": 6211,
      "ropes": 6212,
      "hog": 6213,
      "ops": 6214,
      "cond": 6215,
      "tram": 6216,
      "correct": 6217,
      "knocks": 6218,
      "mushrooms": 6219,
      "Pippa": 6220,
      "Cra": 6221,
      "Mel": 6222,
      "Tam": 6223,
      "essa": 6224,
      "ford": 6225,
      "bras": 6226,
      "throughout": 6227,
      "afford": 6228,
      "steady": 6229,
      "imagining": 6230,
      "spreading": 6231,
      "humans": 6232,
      "slammed": 6233,
      "onward": 6234,
      "ados": 6235,
      "forts": 6236,
      "formed": 6237,
      "dod": 6238,
      "Jackie": 6239,
      "gardener": 6240,
      "hedgehog": 6241,
      "trembled": 6242,
      "sprinkled": 6243,
      "crashing": 6244,
      "surfboard": 6245,
      "Quackers": 6246,
      "certain": 6247,
      "behavior": 6248,
      "Sir": 6249,
      "Tuna": 6250,
      "Thatâ": 6251,
      "joyful": 6252,
      "puff": 6253,
      "promises": 6254,
      "sation": 6255,
      "hopeful": 6256,
      "gracefully": 6257,
      "buzzed": 6258,
      "obeyed": 6259,
      "garbage": 6260,
      "Farmer": 6261,
      "trampol": 6262,
      "nine": 6263,
      "oni": 6264,
      "players": 6265,
      "tapped": 6266,
      "tricycle": 6267,
      "forgets": 6268,
      "separated": 6269,
      "rushing": 6270,
      "wobbly": 6271,
      "suffering": 6272,
      "reflection": 6273,
      "scored": 6274,
      "raindrops": 6275,
      "Ar": 6276,
      "Edd": 6277,
      "Gina": 6278,
      "Try": 6279,
      "cca": 6280,
      "refresh": 6281,
      "sadd": 6282,
      "ppies": 6283,
      "itted": 6284,
      "gears": 6285,
      "roars": 6286,
      "gued": 6287,
      "joining": 6288,
      "heavier": 6289,
      "nervously": 6290,
      "rewarded": 6291,
      "avocados": 6292,
      "honked": 6293,
      "Pretty": 6294,
      "Eddie": 6295,
      "Willi": 6296,
      "hitting": 6297,
      "lings": 6298,
      "€,": 6299,
      "express": 6300,
      "warmer": 6301,
      "biting": 6302,
      "slower": 6303,
      "zebras": 6304,
      "pointy": 6305,
      "seaweed": 6306,
      "Although": 6307,
      "squares": 6308,
      "enthusi": 6309,
      "preparing": 6310,
      "Green": 6311,
      "firmly": 6312,
      "Kiki": 6313,
      "Fuzzy": 6314,
      "hawk": 6315,
      "William": 6316,
      "Jod": 6317,
      "Li": 6318,
      "pins": 6319,
      "uzz": 6320,
      "andas": 6321,
      "iding": 6322,
      "thud": 6323,
      "asm": 6324,
      "poster": 6325,
      "squeak": 6326,
      "ignoring": 6327,
      "scratches": 6328,
      "forks": 6329,
      "superheroes": 6330,
      "performed": 6331,
      "robber": 6332,
      "cousin": 6333,
      "Daniel": 6334,
      "enthusiasm": 6335,
      "Back": 6336,
      "Lina": 6337,
      "Mad": 6338,
      "resis": 6339,
      "ition": 6340,
      "shown": 6341,
      "manag": 6342,
      "Momma": 6343,
      "spat": 6344,
      "surfing": 6345,
      "scen": 6346,
      "scam": 6347,
      "raging": 6348,
      "Chick": 6349,
      "cushions": 6350,
      "increased": 6351,
      "trampoline": 6352,
      "Tig": 6353,
      "stool": 6354,
      "thatâ": 6355,
      "napping": 6356,
      "sunflowers": 6357,
      "rains": 6358,
      "thrown": 6359,
      "smiley": 6360,
      "stands": 6361,
      "ounced": 6362,
      "tubes": 6363,
      "respond": 6364,
      "rustling": 6365,
      "Oli": 6366,
      "Ray": 6367,
      "rout": 6368,
      "wri": 6369,
      "ref": 6370,
      "sever": 6371,
      "noodles": 6372,
      "defe": 6373,
      "helpers": 6374,
      "thoughts": 6375,
      "chopped": 6376,
      "meals": 6377,
      "supported": 6378,
      "Robert": 6379,
      "pigeons": 6380,
      "Yesterday": 6381,
      "mesmerized": 6382,
      "refreshing": 6383,
      "earn": 6384,
      "rup": 6385,
      "inter": 6386,
      "intri": 6387,
      "sale": 6388,
      "feast": 6389,
      "watering": 6390,
      "drawn": 6391,
      "talks": 6392,
      "issue": 6393,
      "matters": 6394,
      "panicked": 6395,
      "suitcase": 6396,
      "daring": 6397,
      "shovels": 6398,
      "Ana": 6399,
      "Eva": 6400,
      "Fair": 6401,
      "Que": 6402,
      "dama": 6403,
      "amed": 6404,
      "bodies": 6405,
      "racco": 6406,
      "spice": 6407,
      "guide": 6408,
      "ments": 6409,
      "Goodnight": 6410,
      "wraps": 6411,
      "paths": 6412,
      "grandson": 6413,
      "lifts": 6414,
      "quarreling": 6415,
      "ornaments": 6416,
      "masterpiece": 6417,
      "damage": 6418,
      "Des": 6419,
      "Duck": 6420,
      "Never": 6421,
      "aven": 6422,
      "nif": 6423,
      "ping": 6424,
      "pandas": 6425,
      "hael": 6426,
      "asing": 6427,
      "ongrat": 6428,
      "dropping": 6429,
      "marsh": 6430,
      "cloudy": 6431,
      "politely": 6432,
      "allows": 6433,
      "frowning": 6434,
      "Mabel": 6435,
      "Michael": 6436,
      "pouted": 6437,
      "instruments": 6438,
      "squishy": 6439,
      "Und": 6440,
      "swords": 6441,
      "œWhere": 6442,
      "cept": 6443,
      "within": 6444,
      "cosy": 6445,
      "explorer": 6446,
      "Dog": 6447,
      "gonna": 6448,
      "passeng": 6449,
      "heroes": 6450,
      "prick": 6451,
      "weekend": 6452,
      "Davey": 6453,
      "exercises": 6454,
      "resisted": 6455,
      "passengers": 6456,
      "Jump": 6457,
      "Oops": 6458,
      "bits": 6459,
      "œBut": 6460,
      "reason": 6461,
      "neare": 6462,
      "forgiven": 6463,
      "poppies": 6464,
      "dads": 6465,
      "waterfall": 6466,
      "spits": 6467,
      "swimsuit": 6468,
      "tasting": 6469,
      "Still": 6470,
      "Roger": 6471,
      "softer": 6472,
      "Alright": 6473,
      "Bubba": 6474,
      "reversed": 6475,
      "Queen": 6476,
      "raccoon": 6477,
      "Ash": 6478,
      "Bang": 6479,
      "Ly": 6480,
      "pon": 6481,
      "œMom": 6482,
      "stung": 6483,
      "worn": 6484,
      "tage": 6485,
      "blocked": 6486,
      "serv": 6487,
      "respected": 6488,
      "changing": 6489,
      "passports": 6490,
      "breathed": 6491,
      "flavors": 6492,
      "Foxy": 6493,
      "aimed": 6494,
      "hour": 6495,
      "trot": 6496,
      "œSure": 6497,
      "ening": 6498,
      "onge": 6499,
      "sponge": 6500,
      "blinking": 6501,
      "sweetest": 6502,
      "prove": 6503,
      "baths": 6504,
      "œIf": 6505,
      "feeding": 6506,
      "angels": 6507,
      "postman": 6508,
      "tempt": 6509,
      "ongratul": 6510,
      "marshm": 6511,
      "Eric": 6512,
      "Spl": 6513,
      "Tessa": 6514,
      "tissue": 6515,
      "ters": 6516,
      "whose": 6517,
      "tablet": 6518,
      "duckling": 6519,
      "heartbroken": 6520,
      "ships": 6521,
      "Mean": 6522,
      "neatly": 6523,
      "lungs": 6524,
      "Ally": 6525,
      "Bam": 6526,
      "cused": 6527,
      "faded": 6528,
      "lon": 6529,
      "ann": 6530,
      "toaster": 6531,
      "insp": 6532,
      "erk": 6533,
      "encou": 6534,
      "locks": 6535,
      "elf": 6536,
      "robo": 6537,
      "causing": 6538,
      "flown": 6539,
      "final": 6540,
      "drawers": 6541,
      "glued": 6542,
      "serving": 6543,
      "sniffing": 6544,
      "Surprise": 6545,
      "Under": 6546,
      "Dr": 6547,
      "Hallo": 6548,
      "œOkay": 6549,
      "behaving": 6550,
      "ading": 6551,
      "hadow": 6552,
      "presses": 6553,
      "nearly": 6554,
      "tighter": 6555,
      "Stitch": 6556,
      "streamers": 6557,
      "delivering": 6558,
      "clues": 6559,
      "licking": 6560,
      "Outside": 6561,
      "ibility": 6562,
      "scampered": 6563,
      "Trust": 6564,
      "lending": 6565,
      "œPlease": 6566,
      "œWell": 6567,
      "byes": 6568,
      "conver": 6569,
      "probab": 6570,
      "whispers": 6571,
      "mints": 6572,
      "healing": 6573,
      "drivers": 6574,
      "footsteps": 6575,
      "crossing": 6576,
      "squeezing": 6577,
      "sharks": 6578,
      "Poor": 6579,
      "Katy": 6580,
      "damaged": 6581,
      "Tammy": 6582,
      "intrigued": 6583,
      "probably": 6584,
      "Ava": 6585,
      "Cu": 6586,
      "Terry": 6587,
      "gaz": 6588,
      "nuzz": 6589,
      "sou": 6590,
      "œOf": 6591,
      "reunited": 6592,
      "ita": 6593,
      "stall": 6594,
      "wept": 6595,
      "antic": 6596,
      "goodbyes": 6597,
      "acle": 6598,
      "spins": 6599,
      "conqu": 6600,
      "pedaled": 6601,
      "despite": 6602,
      "grandfather": 6603,
      "finishing": 6604,
      "results": 6605,
      "borrowed": 6606,
      "limes": 6607,
      "symbols": 6608,
      "surrendered": 6609,
      "novels": 6610,
      "suffered": 6611,
      "punishment": 6612,
      "Zoomy": 6613,
      "Deal": 6614,
      "tilted": 6615,
      "Fairy": 6616,
      "marshmallows": 6617,
      "Bert": 6618,
      "Fight": 6619,
      "œHey": 6620,
      "wasting": 6621,
      "sess": 6622,
      "oky": 6623,
      "kings": 6624,
      "blu": 6625,
      "custom": 6626,
      "misch": 6627,
      "mailed": 6628,
      "battle": 6629,
      "crowns": 6630,
      "cobwebs": 6631,
      "appreciated": 6632,
      "decisions": 6633,
      "cottage": 6634,
      "Excitedly": 6635,
      "tossed": 6636,
      "inspired": 6637,
      "encouraging": 6638,
      "Halloween": 6639,
      "customers": 6640,
      "?!\"": 6641,
      "Isa": 6642,
      "Mouse": 6643,
      "Rain": 6644,
      "pound": 6645,
      "tran": 6646,
      "wider": 6647,
      "lever": 6648,
      "tying": 6649,
      "nodding": 6650,
      "covering": 6651,
      "distra": 6652,
      "triangles": 6653,
      "Despite": 6654,
      "Meanwhile": 6655,
      "robots": 6656,
      "Isabel": 6657,
      "Other": 6658,
      "Rat": 6659,
      "Spr": 6660,
      "afar": 6661,
      "pours": 6662,
      "tuck": 6663,
      "iment": 6664,
      "unsure": 6665,
      "shrunk": 6666,
      "idey": 6667,
      "bravest": 6668,
      "baskets": 6669,
      "images": 6670,
      "Freddie": 6671,
      "sweep": 6672,
      "Spidey": 6673,
      "yielded": 6674,
      "performing": 6675,
      "Maisy": 6676,
      "Bow": 6677,
      "Bru": 6678,
      "Make": 6679,
      "Pick": 6680,
      "dia": 6681,
      "tar": 6682,
      "vil": 6683,
      "adults": 6684,
      "stopping": 6685,
      "quie": 6686,
      "polar": 6687,
      "slither": 6688,
      "giggles": 6689,
      "lifting": 6690,
      "Star": 6691,
      "designs": 6692,
      "aeroplanes": 6693,
      "darlings": 6694,
      "luckily": 6695,
      "discussing": 6696,
      "wobble": 6697,
      "accomplished": 6698,
      "Maddy": 6699,
      "Fighting": 6700,
      "Wend": 6701,
      "Wally": 6702,
      "aware": 6703,
      "ease": 6704,
      "osh": 6705,
      "sie": 6706,
      "focused": 6707,
      "needles": 6708,
      "wisely": 6709,
      "bandages": 6710,
      "gesture": 6711,
      "imagin": 6712,
      "solving": 6713,
      "squeaked": 6714,
      "Megan": 6715,
      "pays": 6716,
      "wakes": 6717,
      "Patch": 6718,
      "nurses": 6719,
      "stacked": 6720,
      "...\"": 6721,
      "magazines": 6722,
      "Robby": 6723,
      "pupils": 6724,
      "Louise": 6725,
      "thorns": 6726,
      "Wendy": 6727,
      "Moo": 6728,
      "Right": 6729,
      "Say": 6730,
      "Stri": 6731,
      "ais": 6732,
      "pant": 6733,
      "forgiving": 6734,
      "momma": 6735,
      "urse": 6736,
      "deed": 6737,
      "starfish": 6738,
      "loops": 6739,
      "cons": 6740,
      "cleaner": 6741,
      "fills": 6742,
      "charac": 6743,
      "troubles": 6744,
      "shady": 6745,
      "orders": 6746,
      "wealth": 6747,
      "environ": 6748,
      "travels": 6749,
      "repeating": 6750,
      "attacked": 6751,
      "Nora": 6752,
      "Ken": 6753,
      "Playing": 6754,
      "Ty": 6755,
      "ashed": 6756,
      "blast": 6757,
      "soaking": 6758,
      "eling": 6759,
      "notes": 6760,
      "shorts": 6761,
      "except": 6762,
      "defin": 6763,
      "itely": 6764,
      "handing": 6765,
      "confli": 6766,
      "artwork": 6767,
      "Gray": 6768,
      "packages": 6769,
      "purr": 6770,
      "Meg": 6771,
      "scram": 6772,
      "languages": 6773,
      "admiration": 6774,
      "firefighter": 6775,
      "echoed": 6776,
      "correctly": 6777,
      "environment": 6778,
      "Gus": 6779,
      "Isn": 6780,
      "Jax": 6781,
      "Nurse": 6782,
      "rumbling": 6783,
      "signing": 6784,
      "vines": 6785,
      "allest": 6786,
      "chilly": 6787,
      "smallest": 6788,
      "acles": 6789,
      "uddles": 6790,
      "fires": 6791,
      "comforting": 6792,
      "puzzled": 6793,
      "frowns": 6794,
      "Start": 6795,
      "changes": 6796,
      "Snowball": 6797,
      "twinkled": 6798,
      "burying": 6799,
      "Mae": 6800,
      "wiggle": 6801,
      "vinced": 6802,
      "Birdy": 6803,
      "Jonny": 6804,
      "Snuggles": 6805,
      "simply": 6806,
      "connected": 6807,
      "several": 6808,
      "ponies": 6809,
      "quieter": 6810,
      "Might": 6811,
      "Randy": 6812,
      "Spe": 6813,
      "lent": 6814,
      "mered": 6815,
      "olf": 6816,
      "clerk": 6817,
      "untied": 6818,
      "compe": 6819,
      "beaver": 6820,
      "convinced": 6821,
      "doorway": 6822,
      "ilda": 6823,
      "slipping": 6824,
      "driveway": 6825,
      "calmly": 6826,
      "bully": 6827,
      "whispering": 6828,
      "Hope": 6829,
      "speeding": 6830,
      "oysters": 6831,
      "backpacks": 6832,
      "reassured": 6833,
      "definitely": 6834,
      "Mighty": 6835,
      "Jason": 6836,
      "Pu": 6837,
      "cour": 6838,
      "dump": 6839,
      "tipped": 6840,
      "issa": 6841,
      "sets": 6842,
      "antha": 6843,
      "playtime": 6844,
      "rather": 6845,
      "Samantha": 6846,
      "handsome": 6847,
      "treated": 6848,
      "kittens": 6849,
      "granddaughter": 6850,
      "brushing": 6851,
      "suggestion": 6852,
      "goats": 6853,
      "campfire": 6854,
      "Snowman": 6855,
      "Carol": 6856,
      "labels": 6857,
      "responsibility": 6858,
      "scurry": 6859,
      "wrigg": 6860,
      "Grac": 6861,
      "Hurry": 6862,
      "Kids": 6863,
      "elope": 6864,
      "œNow": 6865,
      "anny": 6866,
      "ister": 6867,
      "although": 6868,
      "assm": 6869,
      "coach": 6870,
      "nasty": 6871,
      "joked": 6872,
      "overcome": 6873,
      "lessons": 6874,
      "tables": 6875,
      "Helen": 6876,
      "Finn": 6877,
      "glimmering": 6878,
      "planting": 6879,
      "necklaces": 6880,
      "Seeing": 6881,
      "banged": 6882,
      "stamped": 6883,
      "manager": 6884,
      "Gracie": 6885,
      "Dear": 6886,
      "Fa": 6887,
      "Ricky": 6888,
      "œWho": 6889,
      "inches": 6890,
      "recor": 6891,
      "isty": 6892,
      "rian": 6893,
      "birdhouse": 6894,
      "grat": 6895,
      "tapping": 6896,
      "twists": 6897,
      "yelped": 6898,
      "coral": 6899,
      "purpose": 6900,
      "rotting": 6901,
      "wildflowers": 6902,
      "rays": 6903,
      "Ruth": 6904,
      "Flora": 6905,
      "peeled": 6906,
      "weeds": 6907,
      "Bongo": 6908,
      "wrinkled": 6909,
      "Hoo": 6910,
      "Oink": 6911,
      "Woo": 6912,
      "awoke": 6913,
      "dred": 6914,
      "grip": 6915,
      "hike": 6916,
      "scient": 6917,
      "ties": 6918,
      "rely": 6919,
      "ido": 6920,
      "stitches": 6921,
      "sewing": 6922,
      "amount": 6923,
      "rainy": 6924,
      "newfound": 6925,
      "angle": 6926,
      "greet": 6927,
      "breathing": 6928,
      "presented": 6929,
      "cuddles": 6930,
      "Robo": 6931,
      "fantastic": 6932,
      "healthier": 6933,
      "Tiger": 6934,
      "Curious": 6935,
      "conflict": 6936,
      "Brad": 6937,
      "Lia": 6938,
      "Zero": 6939,
      "ashes": 6940,
      "cas": 6941,
      "jack": 6942,
      "mun": 6943,
      "todd": 6944,
      "illie": 6945,
      "rier": 6946,
      "sunscreen": 6947,
      "Does": 6948,
      "displayed": 6949,
      "merma": 6950,
      "ugging": 6951,
      "Rebe": 6952,
      "tested": 6953,
      "flashed": 6954,
      "terrified": 6955,
      "fishes": 6956,
      "appreciation": 6957,
      "risks": 6958,
      "delayed": 6959,
      "disturbing": 6960,
      "sniffs": 6961,
      "opportun": 6962,
      "Anytime": 6963,
      "spices": 6964,
      "trotted": 6965,
      "scrambled": 6966,
      "Faith": 6967,
      "munched": 6968,
      "Ping": 6969,
      "date": 6970,
      "evil": 6971,
      "plugged": 6972,
      "melo": 6973,
      "parted": 6974,
      "leapt": 6975,
      "forests": 6976,
      "Which": 6977,
      "student": 6978,
      "scent": 6979,
      "shrug": 6980,
      "Patty": 6981,
      "Penelope": 6982,
      "invitations": 6983,
      "strongest": 6984,
      "Feeling": 6985,
      "insisting": 6986,
      "Chickie": 6987,
      "Splash": 6988,
      "Tyler": 6989,
      "gratitude": 6990,
      "Brian": 6991,
      "Eliz": 6992,
      "Sup": 6993,
      "Twink": 6994,
      "Zara": 6995,
      "puck": 6996,
      "edges": 6997,
      "onse": 6998,
      "unfortunately": 6999,
      "ittered": 7000,
      "aint": 7001,
      "Ang": 7002,
      "spy": 7003,
      "marve": 7004,
      "sprout": 7005,
      "breaths": 7006,
      "prizes": 7007,
      "beeped": 7008,
      "jets": 7009,
      "response": 7010,
      "Froggy": 7011,
      "sternly": 7012,
      "Amanda": 7013,
      "prickly": 7014,
      "Eliza": 7015,
      "Twinkle": 7016,
      "Arr": 7017,
      "Bounce": 7018,
      "Con": 7019,
      "Candy": 7020,
      "Life": 7021,
      "Shadow": 7022,
      "buses": 7023,
      "munch": 7024,
      "tumbled": 7025,
      "whim": 7026,
      "toward": 7027,
      "beating": 7028,
      "elle": 7029,
      "smashed": 7030,
      "Butter": 7031,
      "posit": 7032,
      "type": 7033,
      "braver": 7034,
      "fins": 7035,
      "pleaded": 7036,
      "floors": 7037,
      "understands": 7038,
      "believing": 7039,
      "paintbrush": 7040,
      "beehive": 7041,
      "jars": 7042,
      "nests": 7043,
      "reminding": 7044,
      "seller": 7045,
      "crawls": 7046,
      "Janie": 7047,
      "travelling": 7048,
      "annoyed": 7049,
      "visitors": 7050,
      "Cook": 7051,
      "tment": 7052,
      "Shelly": 7053,
      "sewed": 7054,
      "shines": 7055,
      "mood": 7056,
      "manners": 7057,
      "fact": 7058,
      "minds": 7059,
      "dripping": 7060,
      "iggie": 7061,
      "chocolates": 7062,
      "examining": 7063,
      "figures": 7064,
      "hoops": 7065,
      "hundred": 7066,
      "knots": 7067,
      "experien": 7068,
      "officers": 7069,
      "swollen": 7070,
      "wounds": 7071,
      "routine": 7072,
      "conquered": 7073,
      "Spring": 7074,
      "Bro": 7075,
      "Nana": 7076,
      "Sweet": 7077,
      "Satur": 7078,
      "Zack": 7079,
      "stroll": 7080,
      "peas": 7081,
      "dears": 7082,
      "poses": 7083,
      "ives": 7084,
      "sped": 7085,
      "months": 7086,
      "nights": 7087,
      "twisty": 7088,
      "worrying": 7089,
      "Behind": 7090,
      "drift": 7091,
      "sneezes": 7092,
      "curl": 7093,
      "occas": 7094,
      "buckled": 7095,
      "bothering": 7096,
      "Zoey": 7097,
      "activity": 7098,
      "encouragement": 7099,
      "sweaty": 7100,
      "Im": 7101,
      "Pur": 7102,
      "Sw": 7103,
      "Show": 7104,
      "sank": 7105,
      "tin": 7106,
      "œGood": 7107,
      "enem": 7108,
      "alley": 7109,
      "tho": 7110,
      "focus": 7111,
      "expert": 7112,
      "beast": 7113,
      "ptain": 7114,
      "cubs": 7115,
      "winding": 7116,
      "cracks": 7117,
      "races": 7118,
      "rowed": 7119,
      "teachers": 7120,
      "Elsa": 7121,
      "toolbox": 7122,
      "flipped": 7123,
      "bells": 7124,
      "camel": 7125,
      "Paula": 7126,
      "otters": 7127,
      "twisting": 7128,
      "seagulls": 7129,
      "nibbled": 7130,
      "Captain": 7131,
      "trans": 7132,
      "Rebecca": 7133,
      "enemies": 7134,
      "Jilly": 7135,
      "Mam": 7136,
      "Open": 7137,
      "via": 7138,
      "ilder": 7139,
      "force": 7140,
      "fries": 7141,
      "pea": 7142,
      "Youâ": 7143,
      "failed": 7144,
      "whoosh": 7145,
      "thanking": 7146,
      "maker": 7147,
      "surprising": 7148,
      "stetho": 7149,
      "colla": 7150,
      "bathing": 7151,
      "swimmer": 7152,
      "osite": 7153,
      "squeaky": 7154,
      "Bluey": 7155,
      "example": 7156,
      "sheets": 7157,
      "beaming": 7158,
      "opposite": 7159,
      "arranged": 7160,
      "Jodie": 7161,
      "Bambi": 7162,
      "recorder": 7163,
      "Lion": 7164,
      "plo": 7165,
      "address": 7166,
      "ulars": 7167,
      "girlâ": 7168,
      "concer": 7169,
      "squaw": 7170,
      "jobs": 7171,
      "humming": 7172,
      "oculars": 7173,
      "cocoon": 7174,
      "spells": 7175,
      "binoculars": 7176,
      "knocking": 7177,
      "prevented": 7178,
      "spills": 7179,
      "glittering": 7180,
      "material": 7181,
      "ssssssssssssssssssssssssssssssss": 7182,
      "charge": 7183,
      "conversation": 7184,
      "gazing": 7185,
      "Super": 7186,
      "experienced": 7187,
      "stethoscope": 7188,
      "Dory": 7189,
      "Fido": 7190,
      "Gail": 7191,
      "bitten": 7192,
      "height": 7193,
      "alien": 7194,
      "shin": 7195,
      "spies": 7196,
      "cheers": 7197,
      "dollars": 7198,
      "hairdresser": 7199,
      "magnif": 7200,
      "squir": 7201,
      "airplanes": 7202,
      "queens": 7203,
      "desper": 7204,
      "cleared": 7205,
      "testing": 7206,
      "trusting": 7207,
      "Chuck": 7208,
      "Marie": 7209,
      "Step": 7210,
      "rats": 7211,
      "questioned": 7212,
      "BunBun": 7213,
      "Magic": 7214,
      "increasing": 7215,
      "efforts": 7216,
      "swayed": 7217,
      "sadder": 7218,
      "aisle": 7219,
      "Arrr": 7220,
      "Ac": 7221,
      "Jem": 7222,
      "Ph": 7223,
      "mie": 7224,
      "ration": 7225,
      "tions": 7226,
      "xie": 7227,
      "haven": 7228,
      "chea": 7229,
      "conv": 7230,
      "tops": 7231,
      "squin": 7232,
      "elect": 7233,
      "active": 7234,
      "gasp": 7235,
      "erosity": 7236,
      "Rocky": 7237,
      "viding": 7238,
      "vehicles": 7239,
      "honking": 7240,
      "mischie": 7241,
      "Ratty": 7242,
      "Saturday": 7243,
      "Fortun": 7244,
      "Ice": 7245,
      "Sal": 7246,
      "TH": 7247,
      "Tess": 7248,
      "Wor": 7249,
      "Wolf": 7250,
      "tum": 7251,
      "iscu": 7252,
      "elbow": 7253,
      "dot": 7254,
      "hotter": 7255,
      "wenty": 7256,
      "lowered": 7257,
      "whoever": 7258,
      "checks": 7259,
      "exploded": 7260,
      "germs": 7261,
      "sails": 7262,
      "purrs": 7263,
      "merry": 7264,
      "generosity": 7265,
      "picnics": 7266,
      "reminds": 7267,
      "Whoever": 7268,
      "tidying": 7269,
      "vibr": 7270,
      "discoveries": 7271,
      "experiences": 7272,
      "permitted": 7273,
      "spilling": 7274,
      "emerged": 7275,
      "sirens": 7276,
      "nibble": 7277,
      "refuse": 7278,
      "nearest": 7279,
      "Startled": 7280,
      "mischievous": 7281,
      "Fortunately": 7282,
      "Gu": 7283,
      "Mother": 7284,
      "Taking": 7285,
      "faint": 7286,
      "loses": 7287,
      "ali": 7288,
      "carries": 7289,
      "classm": 7290,
      "beautifully": 7291,
      "dressing": 7292,
      "providing": 7293,
      "dangers": 7294,
      "boards": 7295,
      "scul": 7296,
      "guessing": 7297,
      "diamonds": 7298,
      "burger": 7299,
      "unpacking": 7300,
      "Feli": 7301,
      "responded": 7302,
      "nuzzled": 7303,
      "characters": 7304,
      "court": 7305,
      "Mina": 7306,
      "Pl": 7307,
      "Te": 7308,
      "Tri": 7309,
      "Zee": 7310,
      "gul": 7311,
      "killed": 7312,
      "vive": 7313,
      "idence": 7314,
      "vegg": 7315,
      "mommies": 7316,
      "pos": 7317,
      "waters": 7318,
      "overhead": 7319,
      "uctor": 7320,
      "cheat": 7321,
      "traded": 7322,
      "slowed": 7323,
      "rowing": 7324,
      "Gogo": 7325,
      "business": 7326,
      "swap": 7327,
      "seashell": 7328,
      "burns": 7329,
      "apologised": 7330,
      "snaps": 7331,
      "Janet": 7332,
      "steering": 7333,
      "Stanley": 7334,
      "conductor": 7335,
      "dodged": 7336,
      "earned": 7337,
      "anticip": 7338,
      "sculpt": 7339,
      "veggies": 7340,
      "Sk": 7341,
      "sipped": 7342,
      "twenty": 7343,
      "wn": 7344,
      "œThe": 7345,
      "ans": 7346,
      "idnight": 7347,
      "necks": 7348,
      "aret": 7349,
      "dee": 7350,
      "details": 7351,
      "whatâ": 7352,
      "bbi": 7353,
      "clue": 7354,
      "combed": 7355,
      "flowing": 7356,
      "survive": 7357,
      "bless": 7358,
      "Boys": 7359,
      "discouraged": 7360,
      "Janey": 7361,
      "phones": 7362,
      "squished": 7363,
      "glittered": 7364,
      "explains": 7365,
      "decoration": 7366,
      "quarre": 7367,
      "windowsill": 7368,
      "youngest": 7369,
      "robbers": 7370,
      "Quickly": 7371,
      "instantly": 7372,
      "Bruce": 7373,
      "Wooly": 7374,
      "aliens": 7375,
      "possess": 7376,
      "sculpture": 7377,
      "Na": 7378,
      "Over": 7379,
      "buddy": 7380,
      "encoun": 7381,
      "argum": 7382,
      "stumble": 7383,
      "thump": 7384,
      "ela": 7385,
      "cock": 7386,
      "lava": 7387,
      "faith": 7388,
      "concert": 7389,
      "doorbell": 7390,
      "warmly": 7391,
      "cutter": 7392,
      "craft": 7393,
      "barrow": 7394,
      "foxes": 7395,
      "smelt": 7396,
      "scrub": 7397,
      "Elsie": 7398,
      "cidents": 7399,
      "million": 7400,
      "wheelbarrow": 7401,
      "wiser": 7402,
      "Juli": 7403,
      "tempted": 7404,
      "slee": 7405,
      "tires": 7406,
      "Carla": 7407,
      "confidence": 7408,
      "More": 7409,
      "expecting": 7410,
      "lipstick": 7411,
      "matey": 7412,
      "longest": 7413,
      "announced": 7414,
      "mermaid": 7415,
      "Accidents": 7416,
      "tummies": 7417,
      "encountered": 7418,
      "Fre": 7419,
      "aim": 7420,
      "bou": 7421,
      "ech": 7422,
      "pip": 7423,
      "œMaybe": 7424,
      "œSee": 7425,
      "€¦": 7426,
      "peep": 7427,
      "newspa": 7428,
      "shall": 7429,
      "joins": 7430,
      "quet": 7431,
      "cheated": 7432,
      "bracele": 7433,
      "exploration": 7434,
      "closing": 7435,
      "cleans": 7436,
      "enjoyable": 7437,
      "spooky": 7438,
      "cupcake": 7439,
      "hardest": 7440,
      "cowboy": 7441,
      "prayers": 7442,
      "checking": 7443,
      "supplied": 7444,
      "cotton": 7445,
      "defeated": 7446,
      "Immediately": 7447,
      "anticipation": 7448,
      "bouquet": 7449,
      "newspapers": 7450,
      "Achoo": 7451,
      "Ever": 7452,
      "Fish": 7453,
      "Min": 7454,
      "Nia": 7455,
      "Sleep": 7456,
      "congratul": 7457,
      "rum": 7458,
      "intent": 7459,
      "thur": 7460,
      "adds": 7461,
      "bride": 7462,
      "switched": 7463,
      "Andre": 7464,
      "lotte": 7465,
      "creams": 7466,
      "singers": 7467,
      "sandpit": 7468,
      "syrup": 7469,
      "belongings": 7470,
      "tests": 7471,
      "Paw": 7472,
      "checkout": 7473,
      "flashing": 7474,
      "Charlotte": 7475,
      "scolds": 7476,
      "paddling": 7477,
      "wiggly": 7478,
      "Frosty": 7479,
      "opinions": 7480,
      "swaying": 7481,
      "Matilda": 7482,
      "seasons": 7483,
      "Arthur": 7484,
      "scurrying": 7485,
      "THE": 7486,
      "classmates": 7487,
      "bracelets": 7488,
      "Fly": 7489,
      "Ky": 7490,
      "Shar": 7491,
      "biscu": 7492,
      "nch": 7493,
      "rink": 7494,
      "sill": 7495,
      "vast": 7496,
      "erup": 7497,
      "asers": 7498,
      "chant": 7499,
      "shor": 7500,
      "cope": 7501,
      "faction": 7502,
      "iff": 7503,
      "untie": 7504,
      "fleas": 7505,
      "Noah": 7506,
      "soundly": 7507,
      "snorted": 7508,
      "crou": 7509,
      "Toto": 7510,
      "miracle": 7511,
      "rubbish": 7512,
      "teams": 7513,
      "turtles": 7514,
      "laptop": 7515,
      "satisfaction": 7516,
      "Prince": 7517,
      "imaginary": 7518,
      "scientist": 7519,
      "opportunity": 7520,
      "Pingu": 7521,
      "convince": 7522,
      "Bi": 7523,
      "Belle": 7524,
      "Willy": 7525,
      "clicked": 7526,
      "cages": 7527,
      "gger": 7528,
      "nations": 7529,
      "shat": 7530,
      "wig": 7531,
      "xy": 7532,
      "ilities": 7533,
      "stur": 7534,
      "necess": 7535,
      "plug": 7536,
      "chill": 7537,
      "hover": 7538,
      "llas": 7539,
      "goodies": 7540,
      "declar": 7541,
      "Angie": 7542,
      "bud": 7543,
      "talents": 7544,
      "born": 7545,
      "glided": 7546,
      "dragonfly": 7547,
      "seashells": 7548,
      "tidied": 7549,
      "umbrellas": 7550,
      "pepperoni": 7551,
      "facts": 7552,
      "applauding": 7553,
      "scratching": 7554,
      "tunes": 7555,
      "sweaters": 7556,
      "forgiveness": 7557,
      "Phil": 7558,
      "Juliet": 7559,
      "',": 7560,
      "Beat": 7561,
      "Danger": 7562,
      "Girl": 7563,
      "Har": 7564,
      "bond": 7565,
      "lump": 7566,
      "tweet": 7567,
      "rent": 7568,
      "ari": 7569,
      "unless": 7570,
      "forgives": 7571,
      "bobb": 7572,
      "smoking": 7573,
      "lookout": 7574,
      "teles": 7575,
      "taped": 7576,
      "sprang": 7577,
      "badger": 7578,
      "chopping": 7579,
      "trigger": 7580,
      "snowy": 7581,
      "honesty": 7582,
      "thicker": 7583,
      "destroying": 7584,
      "ghosts": 7585,
      "meows": 7586,
      "crowded": 7587,
      "bothered": 7588,
      "Friend": 7589,
      "annoying": 7590,
      "servant": 7591,
      "blushed": 7592,
      "consider": 7593,
      "toddler": 7594,
      "shorter": 7595,
      "crouched": 7596,
      "declared": 7597,
      "Beatrice": 7598,
      "telescope": 7599,
      "\"!": 7600,
      "Apr": 7601,
      "Cow": 7602,
      "Care": 7603,
      "Ele": 7604,
      "Gold": 7605,
      "Greg": 7606,
      "Mason": 7607,
      "Rita": 7608,
      "othy": 7609,
      "ya": 7610,
      "inju": 7611,
      "rewards": 7612,
      "neys": 7613,
      "rior": 7614,
      "soo": 7615,
      "elace": 7616,
      "cops": 7617,
      "storing": 7618,
      "papa": 7619,
      "stew": 7620,
      "shoelace": 7621,
      "craf": 7622,
      "designing": 7623,
      "warrior": 7624,
      "melons": 7625,
      "stretches": 7626,
      "engines": 7627,
      "scooters": 7628,
      "miller": 7629,
      "mugs": 7630,
      "sprinkle": 7631,
      "crunch": 7632,
      "chatting": 7633,
      "rescuing": 7634,
      "Lenny": 7635,
      "Bonnie": 7636,
      "Wilbur": 7637,
      "instrument": 7638,
      "mooed": 7639,
      "cheaper": 7640,
      "argument": 7641,
      "April": 7642,
      "Ano": 7643,
      "Bar": 7644,
      "Per": 7645,
      "Use": 7646,
      "fond": 7647,
      "yl": 7648,
      "inspe": 7649,
      "lopes": 7650,
      "adab": 7651,
      "upside": 7652,
      "moat": 7653,
      "Bobbie": 7654,
      "ips": 7655,
      "anced": 7656,
      "visits": 7657,
      "scribb": 7658,
      "Peggy": 7659,
      "caterpillars": 7660,
      "knives": 7661,
      "Marley": 7662,
      "successfully": 7663,
      "crops": 7664,
      "Rudy": 7665,
      "intelligence": 7666,
      "meowing": 7667,
      "tearing": 7668,
      "fascinating": 7669,
      "Claus": 7670,
      "hunting": 7671,
      "expression": 7672,
      "Lydia": 7673,
      "wriggled": 7674,
      "Brother": 7675,
      "Another": 7676,
      "adabra": 7677,
      "Could": 7678,
      "Jas": 7679,
      "Midnight": 7680,
      "Rick": 7681,
      "Wr": 7682,
      "œOk": 7683,
      "insepar": 7684,
      "pples": 7685,
      "abby": 7686,
      "ability": 7687,
      "Weâ": 7688,
      "whined": 7689,
      "blank": 7690,
      "common": 7691,
      "realizes": 7692,
      "surely": 7693,
      "rocky": 7694,
      "traps": 7695,
      "prod": 7696,
      "drowned": 7697,
      "minded": 7698,
      "answering": 7699,
      "hummed": 7700,
      "cloths": 7701,
      "tentacles": 7702,
      "extraordinary": 7703,
      "Patches": 7704,
      "burgers": 7705,
      "Isla": 7706,
      "mosquitoes": 7707,
      "structures": 7708,
      "floats": 7709,
      "deserved": 7710,
      "astronauts": 7711,
      "melody": 7712,
      "vibrant": 7713,
      "inseparable": 7714,
      "Au": 7715,
      "Billie": 7716,
      "Doug": 7717,
      "Wis": 7718,
      "ause": 7719,
      "whel": 7720,
      "inny": 7721,
      "reappeared": 7722,
      "waded": 7723,
      "washes": 7724,
      "ena": 7725,
      "enger": 7726,
      "timid": 7727,
      "outfits": 7728,
      "raising": 7729,
      "lleng": 7730,
      "cares": 7731,
      "builder": 7732,
      "overwhel": 7733,
      "cheating": 7734,
      "donkey": 7735,
      "Johny": 7736,
      "Through": 7737,
      "finishes": 7738,
      "dollar": 7739,
      "fireflies": 7740,
      "farmers": 7741,
      "swimsuits": 7742,
      "drill": 7743,
      "challeng": 7744,
      "explaining": 7745,
      "owls": 7746,
      "bubbly": 7747,
      "frustration": 7748,
      "cherish": 7749,
      "crickets": 7750,
      "files": 7751,
      "awful": 7752,
      "scarecrow": 7753,
      "envelopes": 7754,
      "applause": 7755,
      "demanding": 7756,
      "weapons": 7757,
      "particularly": 7758,
      "Liam": 7759,
      "Olivia": 7760,
      "levers": 7761,
      "pipes": 7762,
      "Wisdom": 7763,
      "Fo": 7764,
      "aboard": 7765,
      "bam": 7766,
      "ey": 7767,
      "fus": 7768,
      "limp": 7769,
      "ramp": 7770,
      "noticing": 7771,
      "cafe": 7772,
      "napped": 7773,
      "teen": 7774,
      "paste": 7775,
      "Jackâ": 7776,
      "compar": 7777,
      "compan": 7778,
      "bluebird": 7779,
      "brightest": 7780,
      "petting": 7781,
      "jud": 7782,
      "psed": 7783,
      "flick": 7784,
      "flips": 7785,
      "shyly": 7786,
      "copied": 7787,
      "burnt": 7788,
      "cracker": 7789,
      "strips": 7790,
      "Rufus": 7791,
      "alligators": 7792,
      "supporting": 7793,
      "offering": 7794,
      "lumberjack": 7795,
      "chatted": 7796,
      "Monkey": 7797,
      "Martin": 7798,
      "Libby": 7799,
      "Oliver": 7800,
      "distracted": 7801,
      "occasion": 7802,
      "collapsed": 7803,
      "peeped": 7804,
      "necessary": 7805,
      "bamboo": 7806,
      "Again": 7807,
      "Jelly": 7808,
      "Ka": 7809,
      "Nat": 7810,
      "Pink": 7811,
      "Riley": 7812,
      "Raven": 7813,
      "Son": 7814,
      "ka": 7815,
      "munk": 7816,
      "immered": 7817,
      "pled": 7818,
      "shh": 7819,
      "Timothy": 7820,
      "gras": 7821,
      "goodness": 7822,
      "angrier": 7823,
      "acing": 7824,
      "maje": 7825,
      "Looking": 7826,
      "snug": 7827,
      "sandy": 7828,
      "patches": 7829,
      "appearance": 7830,
      "avi": 7831,
      "practised": 7832,
      "films": 7833,
      "Marcy": 7834,
      "apology": 7835,
      "messes": 7836,
      "messages": 7837,
      "Rudolph": 7838,
      "risk": 7839,
      "freezing": 7840,
      "traveling": 7841,
      "slapping": 7842,
      "behaviour": 7843,
      "Angela": 7844,
      "Mamma": 7845,
      "peacock": 7846,
      "squinted": 7847,
      "Andrew": 7848,
      "sturdy": 7849,
      "Elephant": 7850,
      "Rosa": 7851,
      "Tears": 7852,
      "awhile": 7853,
      "cled": 7854,
      "groom": 7855,
      "tugging": 7856,
      "hew": 7857,
      "oma": 7858,
      "adually": 7859,
      "unfair": 7860,
      "unfamiliar": 7861,
      "chin": 7862,
      "ently": 7863,
      "shimmering": 7864,
      "sometime": 7865,
      "illas": 7866,
      "range": 7867,
      "clut": 7868,
      "ankle": 7869,
      "custo": 7870,
      "gues": 7871,
      "minding": 7872,
      "Lemon": 7873,
      "clearly": 7874,
      "disappointment": 7875,
      "flaps": 7876,
      "Lots": 7877,
      "coolest": 7878,
      "computers": 7879,
      "kangaroos": 7880,
      "yawning": 7881,
      "approach": 7882,
      "chipmunk": 7883,
      "textures": 7884,
      "sleds": 7885,
      "Matty": 7886,
      "compete": 7887,
      "transformed": 7888,
      "shattered": 7889,
      "''": 7890,
      "Cha": 7891,
      "Clim": 7892,
      "Dis": 7893,
      "Dina": 7894,
      "Gra": 7895,
      "Nancy": 7896,
      "Win": 7897,
      "Yog": 7898,
      "coug": 7899,
      "lou": 7900,
      "narrow": 7901,
      "pouch": 7902,
      "sus": 7903,
      "aned": 7904,
      "invent": 7905,
      "sav": 7906,
      "ats": 7907,
      "hisses": 7908,
      "foam": 7909,
      "iciest": 7910,
      "ruff": 7911,
      "Joan": 7912,
      "Joanna": 7913,
      "skies": 7914,
      "gardens": 7915,
      "leap": 7916,
      "movements": 7917,
      "observing": 7918,
      "gasps": 7919,
      "moonlight": 7920,
      "soapy": 7921,
      "frightening": 7922,
      "obediently": 7923,
      "Rosy": 7924,
      "whistles": 7925,
      "quacks": 7926,
      "automobiles": 7927,
      "Moon": 7928,
      "introducing": 7929,
      "smartest": 7930,
      "heels": 7931,
      "Kenny": 7932,
      "marveled": 7933,
      "positive": 7934,
      "Bibi": 7935,
      "coughed": 7936,
      "Gilly": 7937,
      "Mu": 7938,
      "Ran": 7939,
      "bound": 7940,
      "eld": 7941,
      "fade": 7942,
      "lull": 7943,
      "rina": 7944,
      "rinse": 7945,
      "œYay": 7946,
      "ream": 7947,
      "remy": 7948,
      "erg": 7949,
      "level": 7950,
      "ative": 7951,
      "hiss": 7952,
      "dete": 7953,
      "shallow": 7954,
      "joys": 7955,
      "foreshadow": 7956,
      "drey": 7957,
      "venir": 7958,
      "skate": 7959,
      "spare": 7960,
      "Whatâ": 7961,
      "White": 7962,
      "baa": 7963,
      "rows": 7964,
      "laces": 7965,
      "stirs": 7966,
      "meadows": 7967,
      "blown": 7968,
      "returning": 7969,
      "haircuts": 7970,
      "banging": 7971,
      "quacking": 7972,
      "Jeremy": 7973,
      "strokes": 7974,
      "Crabby": 7975,
      "souvenir": 7976,
      "congratulated": 7977,
      "Audrey": 7978,
      "companion": 7979,
      "customer": 7980,
      "detective": 7981,
      "!'.": 7982,
      "Barry": 7983,
      "Holly": 7984,
      "Oscar": 7985,
      "Pig": 7986,
      "Rino": 7987,
      "Turn": 7988,
      "rider": 7989,
      "habit": 7990,
      "local": 7991,
      "stals": 7992,
      "aston": 7993,
      "shrank": 7994,
      "fet": 7995,
      "umed": 7996,
      "owns": 7997,
      "grumbled": 7998,
      "muster": 7999,
      "speople": 8000,
      "concent": 8001,
      "sooner": 8002,
      "snor": 8003,
      "firefly": 8004,
      "riverbank": 8005,
      "glanced": 8006,
      "pressing": 8007,
      "sharpen": 8008,
      "townspeople": 8009,
      "mattered": 8010,
      "trusty": 8011,
      "chews": 8012,
      "formation": 8013,
      "cheerfully": 8014,
      "clip": 8015,
      "sweeter": 8016,
      "gorillas": 8017,
      "repairman": 8018,
      "uniforms": 8019,
      "sincere": 8020,
      "musicians": 8021,
      "Share": 8022,
      "cells": 8023,
      "hesitation": 8024,
      "Mole": 8025,
      "situations": 8026,
      "unicorns": 8027,
      "Monster": 8028,
      "scenery": 8029,
      "temptation": 8030,
      "hundreds": 8031,
      "concerned": 8032,
      "electri": 8033,
      "Felix": 8034,
      "gulped": 8035,
      "Abra": 8036,
      "Hmm": 8037,
      "Ravi": 8038,
      "dou": 8039,
      "natur": 8040,
      "wil": 8041,
      "heaven": 8042,
      "tone": 8043,
      "retri": 8044,
      "aroma": 8045,
      "sacks": 8046,
      "strolled": 8047,
      "section": 8048,
      "ria": 8049,
      "boil": 8050,
      "peak": 8051,
      "funn": 8052,
      "Ant": 8053,
      "whir": 8054,
      "whine": 8055,
      "creep": 8056,
      "blades": 8057,
      "leaking": 8058,
      "doorstep": 8059,
      "crystals": 8060,
      "sweetly": 8061,
      "chili": 8062,
      "Bea": 8063,
      "Peppa": 8064,
      "calmer": 8065,
      "teapot": 8066,
      "bats": 8067,
      "groups": 8068,
      "booth": 8069,
      "stuffing": 8070,
      "croaked": 8071,
      "guards": 8072,
      "beetles": 8073,
      "tips": 8074,
      "vacu": 8075,
      "honks": 8076,
      "compliment": 8077,
      "swirls": 8078,
      "Melissa": 8079,
      "Stripe": 8080,
      "Purr": 8081,
      "Swim": 8082,
      "biscuit": 8083,
      "overwhelmed": 8084,
      "Climb": 8085,
      "lullaby": 8086,
      "Close": 8087,
      "Ivy": 8088,
      "Light": 8089,
      "Play": 8090,
      "Puddles": 8091,
      "Sa": 8092,
      "cadabra": 8093,
      "ix": 8094,
      "ots": 8095,
      "erina": 8096,
      "isie": 8097,
      "ayla": 8098,
      "hissing": 8099,
      "acts": 8100,
      "Annabel": 8101,
      "JoJo": 8102,
      "offers": 8103,
      "thrill": 8104,
      "flock": 8105,
      "welcoming": 8106,
      "cooled": 8107,
      "pleas": 8108,
      "woodcutter": 8109,
      "horri": 8110,
      "passenger": 8111,
      "dryer": 8112,
      "journeys": 8113,
      "cowboys": 8114,
      "zooms": 8115,
      "protection": 8116,
      "flashes": 8117,
      "palms": 8118,
      "whales": 8119,
      "striches": 8120,
      "dusted": 8121,
      "rewarding": 8122,
      "communic": 8123,
      "Maisie": 8124,
      "Liza": 8125,
      "scene": 8126,
      "Ashley": 8127,
      "target": 8128,
      "pantry": 8129,
      "munching": 8130,
      "whimpered": 8131,
      "shoelaces": 8132,
      "astonished": 8133,
      "Cal": 8134,
      "Cara": 8135,
      "Din": 8136,
      "Jes": 8137,
      "Sitting": 8138,
      "Years": 8139,
      "bends": 8140,
      "crushed": 8141,
      "dumb": 8142,
      "ely": 8143,
      "slot": 8144,
      "uing": 8145,
      "vas": 8146,
      "wanna": 8147,
      "œBe": 8148,
      "œHow": 8149,
      "ands": 8150,
      "int": 8151,
      "ering": 8152,
      "enna": 8153,
      "noo": 8154,
      "undone": 8155,
      "soda": 8156,
      "weâ": 8157,
      "playdate": 8158,
      "dock": 8159,
      "canvas": 8160,
      "acy": 8161,
      "types": 8162,
      "Jojo": 8163,
      "runner": 8164,
      "spi": 8165,
      "Things": 8166,
      "pedall": 8167,
      "sleeps": 8168,
      "daily": 8169,
      "strated": 8170,
      "attitude": 8171,
      "pilots": 8172,
      "pills": 8173,
      "Chip": 8174,
      "erase": 8175,
      "teamwork": 8176,
      "courageous": 8177,
      "auntie": 8178,
      "scares": 8179,
      "clips": 8180,
      "toothbrush": 8181,
      "tickles": 8182,
      "snapping": 8183,
      "Catty": 8184,
      "scattering": 8185,
      "fashionable": 8186,
      "revealing": 8187,
      "ibly": 8188,
      "Cathy": 8189,
      "Puppy": 8190,
      "deeply": 8191,
      "compared": 8192,
      "Rani": 8193,
      "electricity": 8194,
      "Abracadabra": 8195,
      "retrie": 8196,
      "Biggie": 8197,
      "Ria": 8198,
      "Silly": 8199,
      "Tre": 8200,
      "Tree": 8201,
      "Using": 8202,
      "Wake": 8203,
      "pounced": 8204,
      "rin": 8205,
      "rins": 8206,
      "yuck": 8207,
      "thew": 8208,
      "toad": 8209,
      "recess": 8210,
      "ern": 8211,
      "stun": 8212,
      "orrow": 8213,
      "becomes": 8214,
      "secur": 8215,
      "rick": 8216,
      "unwrapped": 8217,
      "roast": 8218,
      "racer": 8219,
      "hoy": 8220,
      "carri": 8221,
      "Tomorrow": 8222,
      "moons": 8223,
      "backs": 8224,
      "worst": 8225,
      "treas": 8226,
      "Jose": 8227,
      "cting": 8228,
      "venture": 8229,
      "headache": 8230,
      "heavily": 8231,
      "villain": 8232,
      "genie": 8233,
      "bubbling": 8234,
      "sprays": 8235,
      "tents": 8236,
      "squeezes": 8237,
      "salon": 8238,
      "ticking": 8239,
      "tickling": 8240,
      "kneeling": 8241,
      "Greta": 8242,
      "stomp": 8243,
      "container": 8244,
      "glittery": 8245,
      "Should": 8246,
      "Janice": 8247,
      "coughing": 8248,
      "sensation": 8249,
      "sobbing": 8250,
      "Birdie": 8251,
      "Matthew": 8252,
      "udged": 8253,
      "mesmerised": 8254,
      "centre": 8255,
      "Isabella": 8256,
      "slithered": 8257,
      "concentr": 8258,
      "natural": 8259,
      "rinsed": 8260,
      "security": 8261,
      "CD": 8262,
      "Cry": 8263,
      "Fru": 8264,
      "Gary": 8265,
      "Hu": 8266,
      "Man": 8267,
      "Math": 8268,
      "Nature": 8269,
      "Ooh": 8270,
      "Pru": 8271,
      "Roo": 8272,
      "Ribb": 8273,
      "Smo": 8274,
      "ippy": 8275,
      "enjoys": 8276,
      "ime": 8277,
      "stantly": 8278,
      "oray": 8279,
      "aming": 8280,
      "liar": 8281,
      "dolly": 8282,
      "dozed": 8283,
      "exchange": 8284,
      "ballerina": 8285,
      "skirts": 8286,
      "clam": 8287,
      "untangle": 8288,
      "ketch": 8289,
      "joyfully": 8290,
      "shares": 8291,
      "fishy": 8292,
      "snar": 8293,
      "hunger": 8294,
      "visible": 8295,
      "landing": 8296,
      "kayaking": 8297,
      "knobs": 8298,
      "Learn": 8299,
      "pudding": 8300,
      "mysteries": 8301,
      "obst": 8302,
      "weaker": 8303,
      "relaxing": 8304,
      "contented": 8305,
      "bounces": 8306,
      "doesnâ": 8307,
      "performers": 8308,
      "entering": 8309,
      "poisonous": 8310,
      "Sparkles": 8311,
      "Mona": 8312,
      "Otherwise": 8313,
      "Speedy": 8314,
      "intently": 8315,
      "crafts": 8316,
      "Natal": 8317,
      "loudest": 8318,
      "mustered": 8319,
      "spiky": 8320,
      "Ribbit": 8321,
      "Alf": 8322,
      "Ahoy": 8323,
      "Boun": 8324,
      "Izzy": 8325,
      "Jumpy": 8326,
      "Sand": 8327,
      "Shall": 8328,
      "Yel": 8329,
      "aa": 8330,
      "bom": 8331,
      "fif": 8332,
      "lers": 8333,
      "litter": 8334,
      "py": 8335,
      "œDon": 8336,
      "œThanks": 8337,
      "thest": 8338,
      "onde": 8339,
      "thie": 8340,
      "kes": 8341,
      "amused": 8342,
      "ppin": 8343,
      "unable": 8344,
      "cooper": 8345,
      "motions": 8346,
      "popping": 8347,
      "grily": 8348,
      "cases": 8349,
      "getic": 8350,
      "actor": 8351,
      "blonde": 8352,
      "Thankfully": 8353,
      "Book": 8354,
      "€™.": 8355,
      "disobeyed": 8356,
      "stores": 8357,
      "magically": 8358,
      "marking": 8359,
      "tastiest": 8360,
      "juiciest": 8361,
      "Becky": 8362,
      "roller": 8363,
      "iggles": 8364,
      "alongside": 8365,
      "flip": 8366,
      "bellies": 8367,
      "blooms": 8368,
      "lizards": 8369,
      "cooed": 8370,
      "experiment": 8371,
      "Sunshine": 8372,
      "invites": 8373,
      "complet": 8374,
      "thumbs": 8375,
      "sniffled": 8376,
      "stains": 8377,
      "defeat": 8378,
      "shinier": 8379,
      "quarreled": 8380,
      "Harold": 8381,
      "treasured": 8382,
      "ketchup": 8383,
      ",'": 8384,
      "Avery": 8385,
      "Cuddles": 8386,
      "Del": 8387,
      "Fif": 8388,
      "Lex": 8389,
      "Ni": 8390,
      "Zigzag": 8391,
      "cig": 8392,
      "cru": 8393,
      "œGo": 8394,
      "œMummy": 8395,
      "theat": 8396,
      "ande": 8397,
      "tock": 8398,
      "enchant": 8399,
      "ared": 8400,
      "iddy": 8401,
      "loom": 8402,
      "ald": 8403,
      "aling": 8404,
      "rips": 8405,
      "unity": 8406,
      "momâ": 8407,
      "icent": 8408,
      "prof": 8409,
      "boyâ": 8410,
      "usion": 8411,
      "uster": 8412,
      "whirl": 8413,
      "comets": 8414,
      "rightful": 8415,
      "assist": 8416,
      "fived": 8417,
      "underwater": 8418,
      "Though": 8419,
      "realizing": 8420,
      "month": 8421,
      "warmed": 8422,
      "cris": 8423,
      "droop": 8424,
      "keyhole": 8425,
      "softened": 8426,
      "purring": 8427,
      "partment": 8428,
      "hangers": 8429,
      "smoothly": 8430,
      "trusts": 8431,
      "cupboards": 8432,
      "crocodiles": 8433,
      "hunters": 8434,
      "energ": 8435,
      "hooves": 8436,
      "Sparkle": 8437,
      "œWeâ": 8438,
      "nightmares": 8439,
      "rooster": 8440,
      "Pippin": 8441,
      "achievement": 8442,
      "Bailey": 8443,
      "disagreeing": 8444,
      "Confused": 8445,
      "soothing": 8446,
      "Writing": 8447,
      "challenges": 8448,
      "Yellow": 8449,
      "cigaret": 8450,
      "Buster": 8451,
      "Crusty": 8452,
      "Den": 8453,
      "Eve": 8454,
      "Mila": 8455,
      "Orange": 8456,
      "Rel": 8457,
      "Tell": 8458,
      "Vio": 8459,
      "Was": 8460,
      "Wise": 8461,
      "nis": 8462,
      "ostriches": 8463,
      "inj": 8464,
      "ress": 8465,
      "restoring": 8466,
      "ene": 8467,
      "coop": 8468,
      "device": 8469,
      "facing": 8470,
      "otherwise": 8471,
      "spears": 8472,
      "atest": 8473,
      "gress": 8474,
      "Thump": 8475,
      "connect": 8476,
      "Dove": 8477,
      "Bees": 8478,
      "Becca": 8479,
      "mustn": 8480,
      "dripped": 8481,
      "swapped": 8482,
      "towns": 8483,
      "Elle": 8484,
      "Peanut": 8485,
      "calming": 8486,
      "circled": 8487,
      "uggy": 8488,
      "lasted": 8489,
      "oceans": 8490,
      "larger": 8491,
      "bulbs": 8492,
      "cherished": 8493,
      "hamster": 8494,
      "microwave": 8495,
      "digs": 8496,
      "loyalty": 8497,
      "Patrick": 8498,
      "Hopper": 8499,
      "beeping": 8500,
      "Alan": 8501,
      "vinegar": 8502,
      "groaned": 8503,
      "costs": 8504,
      "weighing": 8505,
      "Robin": 8506,
      "weights": 8507,
      "solutely": 8508,
      "caution": 8509,
      "Laila": 8510,
      "Fifi": 8511,
      "theatre": 8512,
      "?!": 8513,
      "Aw": 8514,
      "Burt": 8515,
      "Biggy": 8516,
      "Count": 8517,
      "Congratul": 8518,
      "Ging": 8519,
      "Ms": 8520,
      "NG": 8521,
      "Nate": 8522,
      "Oak": 8523,
      "Summer": 8524,
      "dled": 8525,
      "ial": 8526,
      "mur": 8527,
      "miest": 8528,
      "pts": 8529,
      "passes": 8530,
      "suck": 8531,
      "tling": 8532,
      "œThere": 8533,
      "hatch": 8534,
      "adv": 8535,
      "robin": 8536,
      "raked": 8537,
      "hoses": 8538,
      "carton": 8539,
      "pest": 8540,
      "birdy": 8541,
      "cience": 8542,
      "greatest": 8543,
      "blade": 8544,
      "explode": 8545,
      "meaning": 8546,
      "differently": 8547,
      "floppy": 8548,
      "proceed": 8549,
      "Got": 8550,
      "jeans": 8551,
      "gratefully": 8552,
      "boarded": 8553,
      "service": 8554,
      "wrapper": 8555,
      "widely": 8556,
      "bruises": 8557,
      "desks": 8558,
      "bicycles": 8559,
      "risky": 8560,
      "exercising": 8561,
      "weighs": 8562,
      "Carly": 8563,
      "Jean": 8564,
      "motorcycles": 8565,
      "property": 8566,
      "yummiest": 8567,
      "Willie": 8568,
      "reversing": 8569,
      "Hoot": 8570,
      "Skip": 8571,
      "Kathy": 8572,
      "majestic": 8573,
      "Congratulations": 8574,
      "Ginger": 8575,
      "Amber": 8576,
      "Ber": 8577,
      "Cloud": 8578,
      "Dizzy": 8579,
      "Imag": 8580,
      "Mill": 8581,
      "Respe": 8582,
      "Stu": 8583,
      "Slim": 8584,
      "Want": 8585,
      "Ziggy": 8586,
      "atop": 8587,
      "mitt": 8588,
      "sinking": 8589,
      "tend": 8590,
      "angrily": 8591,
      "erasers": 8592,
      "isha": 8593,
      "ima": 8594,
      "iments": 8595,
      "hates": 8596,
      "boiling": 8597,
      "raking": 8598,
      "mold": 8599,
      "manâ": 8600,
      "Sami": 8601,
      "preschool": 8602,
      "usty": 8603,
      "pace": 8604,
      "howl": 8605,
      "spades": 8606,
      "blamed": 8607,
      "compromise": 8608,
      "leaped": 8609,
      "liest": 8610,
      "welve": 8611,
      "gliding": 8612,
      "mindful": 8613,
      "drip": 8614,
      "drying": 8615,
      "dashed": 8616,
      "storms": 8617,
      "values": 8618,
      "Miles": 8619,
      "current": 8620,
      "zips": 8621,
      "persistence": 8622,
      "imaginations": 8623,
      "shoots": 8624,
      "kissing": 8625,
      "pedaling": 8626,
      "bundle": 8627,
      "Ahh": 8628,
      "Surprised": 8629,
      "condition": 8630,
      "certainly": 8631,
      "puffed": 8632,
      "Hootie": 8633,
      "plopped": 8634,
      "magnificent": 8635,
      "Trixie": 8636,
      "Freya": 8637,
      "funniest": 8638,
      "communicate": 8639,
      "Crystal": 8640,
      "thieves": 8641,
      "completing": 8642,
      "injured": 8643,
      "Respect": 8644,
      "Cars": 8645,
      "Find": 8646,
      "Frid": 8647,
      "Gem": 8648,
      "Jed": 8649,
      "Laser": 8650,
      "Merry": 8651,
      "Pow": 8652,
      "Phew": 8653,
      "Sc": 8654,
      "Sil": 8655,
      "Sky": 8656,
      "gates": 8657,
      "glistening": 8658,
      "nudged": 8659,
      "ogre": 8660,
      "prank": 8661,
      "twelve": 8662,
      "œJohn": 8663,
      "erts": 8664,
      "ality": 8665,
      "amps": 8666,
      "plank": 8667,
      "endant": 8668,
      "cocon": 8669,
      "absolutely": 8670,
      "ssy": 8671,
      "doggie": 8672,
      "nicest": 8673,
      "Johnâ": 8674,
      "Boy": 8675,
      "Bobbi": 8676,
      "waitress": 8677,
      "disobey": 8678,
      "brightened": 8679,
      "Instantly": 8680,
      "gladly": 8681,
      "bait": 8682,
      "messed": 8683,
      "lakes": 8684,
      "scrun": 8685,
      "addition": 8686,
      "batch": 8687,
      "Grandmother": 8688,
      "guarding": 8689,
      "loads": 8690,
      "tanks": 8691,
      "scoops": 8692,
      "desserts": 8693,
      "pinching": 8694,
      "scratchy": 8695,
      "aprons": 8696,
      "solutions": 8697,
      "Debbie": 8698,
      "ibilities": 8699,
      "dodging": 8700,
      "Guess": 8701,
      "judges": 8702,
      "Dinner": 8703,
      "Smoke": 8704,
      "enemy": 8705,
      "coconut": 8706,
      "Eat": 8707,
      "Ger": 8708,
      "Lara": 8709,
      "Old": 8710,
      "Pin": 8711,
      "Pho": 8712,
      "Pear": 8713,
      "Wink": 8714,
      "athan": 8715,
      "dande": 8716,
      "gap": 8717,
      "gorge": 8718,
      "gallo": 8719,
      "jing": 8720,
      "shave": 8721,
      "wiggling": 8722,
      "œHelp": 8723,
      "œWelcome": 8724,
      "heâ": 8725,
      "leys": 8726,
      "lor": 8727,
      "seals": 8728,
      "gogg": 8729,
      "antenna": 8730,
      "allerg": 8731,
      "ysitter": 8732,
      "hollow": 8733,
      "ication": 8734,
      "poles": 8735,
      "owning": 8736,
      "stor": 8737,
      "parks": 8738,
      "deciding": 8739,
      "ously": 8740,
      "oldest": 8741,
      "mashed": 8742,
      "whipped": 8743,
      "creak": 8744,
      "hurtful": 8745,
      "steered": 8746,
      "winds": 8747,
      "Doctor": 8748,
      "nightstand": 8749,
      "displaying": 8750,
      "disaster": 8751,
      "medals": 8752,
      "winners": 8753,
      "harvest": 8754,
      "lunchbox": 8755,
      "sickness": 8756,
      "piled": 8757,
      "feathered": 8758,
      "footprints": 8759,
      "suggests": 8760,
      "depths": 8761,
      "fiercely": 8762,
      "statues": 8763,
      "springtime": 8764,
      "stacking": 8765,
      "Trina": 8766,
      "scooping": 8767,
      "hooks": 8768,
      "hadnâ": 8769,
      "buckles": 8770,
      "Sundays": 8771,
      "sneaks": 8772,
      "disappearing": 8773,
      "confusion": 8774,
      "babysitter": 8775,
      "flavour": 8776,
      "stomachs": 8777,
      "chatter": 8778,
      "writer": 8779,
      "lush": 8780,
      "recommendation": 8781,
      "lovingly": 8782,
      "Jonathan": 8783,
      "puppets": 8784,
      "interrup": 8785,
      "servants": 8786,
      "ssssssssssssssssssssssssssssssssssssssssssssssssssssssssssssssss": 8787,
      "Annabelle": 8788,
      "cruel": 8789,
      "enchanted": 8790,
      "Violet": 8791,
      "Imagine": 8792,
      "gorgeous": 8793,
      "goggles": 8794,
      "Bra": 8795,
      "Bark": 8796,
      "Gw": 8797,
      "Pris": 8798,
      "Rusty": 8799,
      "Tra": 8800,
      "Turt": 8801,
      "cuc": 8802,
      "cilla": 8803,
      "mers": 8804,
      "pave": 8805,
      "spar": 8806,
      "science": 8807,
      "till": 8808,
      "tumbling": 8809,
      "vit": 8810,
      "ying": 8811,
      "yay": 8812,
      "anie": 8813,
      "tot": 8814,
      "information": 8815,
      "loser": 8816,
      "aloud": 8817,
      "stinky": 8818,
      "ord": 8819,
      "iring": 8820,
      "thir": 8821,
      "adjust": 8822,
      "unged": 8823,
      "owled": 8824,
      "forwards": 8825,
      "ula": 8826,
      "cotch": 8827,
      "exhi": 8828,
      "department": 8829,
      "gradually": 8830,
      "ift": 8831,
      "switches": 8832,
      "handy": 8833,
      "taps": 8834,
      "spoken": 8835,
      "untangled": 8836,
      "braid": 8837,
      "jumper": 8838,
      "realise": 8839,
      "slur": 8840,
      "bloss": 8841,
      "disagreement": 8842,
      "shots": 8843,
      "sweetness": 8844,
      "Dale": 8845,
      "softness": 8846,
      "projects": 8847,
      "progress": 8848,
      "Toys": 8849,
      "continuing": 8850,
      "Jenn": 8851,
      "Flash": 8852,
      "Peek": 8853,
      "calf": 8854,
      "cutest": 8855,
      "grandkids": 8856,
      "screech": 8857,
      "incts": 8858,
      "guitars": 8859,
      "ordering": 8860,
      "croak": 8861,
      "fooled": 8862,
      "independence": 8863,
      "domino": 8864,
      "regularly": 8865,
      "tempts": 8866,
      "ribbit": 8867,
      "mayor": 8868,
      "dives": 8869,
      "performer": 8870,
      "contained": 8871,
      "chattered": 8872,
      "niece": 8873,
      "choosing": 8874,
      "inchworm": 8875,
      "nibbling": 8876,
      "swirled": 8877,
      "dips": 8878,
      "Sean": 8879,
      "instincts": 8880,
      "hopscotch": 8881,
      "saddle": 8882,
      "nearer": 8883,
      "soul": 8884,
      "pounds": 8885,
      "Speed": 8886,
      "Cookies": 8887,
      "desperately": 8888,
      "injury": 8889,
      "eyed": 8890,
      "suspic": 8891,
      "savor": 8892,
      "elders": 8893,
      "Lightning": 8894,
      "pleasant": 8895,
      "Thumper": 8896,
      "Gwen": 8897,
      "Priscilla": 8898,
      "pavement": 8899,
      "sparrow": 8900,
      "Cho": 8901,
      "Di": 8902,
      "Ethe": 8903,
      "Freeze": 8904,
      "Glo": 8905,
      "Hor": 8906,
      "Much": 8907,
      "Vel": 8908,
      "aback": 8909,
      "damp": 8910,
      "ebe": 8911,
      "hips": 8912,
      "mit": 8913,
      "pads": 8914,
      "ridge": 8915,
      "rumbled": 8916,
      "site": 8917,
      "œHere": 8918,
      "inspir": 8919,
      "reck": 8920,
      "waking": 8921,
      "oned": 8922,
      "keen": 8923,
      "attempts": 8924,
      "cere": 8925,
      "riches": 8926,
      "bold": 8927,
      "urging": 8928,
      "devast": 8929,
      "lowers": 8930,
      "wolves": 8931,
      "quilt": 8932,
      "maps": 8933,
      "bronto": 8934,
      "overheard": 8935,
      "spied": 8936,
      "blurry": 8937,
      "kinder": 8938,
      "brakes": 8939,
      "Johnnie": 8940,
      "Three": 8941,
      "Boom": 8942,
      "stepping": 8943,
      "twitched": 8944,
      "trim": 8945,
      "guided": 8946,
      "uffed": 8947,
      "tripping": 8948,
      "avy": 8949,
      "whiskers": 8950,
      "Leah": 8951,
      "diver": 8952,
      "invol": 8953,
      "organised": 8954,
      "melts": 8955,
      "borrowing": 8956,
      "contentment": 8957,
      "Marco": 8958,
      "furious": 8959,
      "admit": 8960,
      "Geor": 8961,
      "seriously": 8962,
      "thunderstorm": 8963,
      "enthusiastically": 8964,
      "repairing": 8965,
      "Copper": 8966,
      "bolt": 8967,
      "unlocking": 8968,
      "shooed": 8969,
      "isnâ": 8970,
      "Move": 8971,
      "wrench": 8972,
      "Shrink": 8973,
      "peels": 8974,
      "Willow": 8975,
      "cousins": 8976,
      "tempting": 8977,
      "squirted": 8978,
      "desperate": 8979,
      "possession": 8980,
      "sleeve": 8981,
      "bobbing": 8982,
      "Yoga": 8983,
      "Natalie": 8984,
      "Bouncy": 8985,
      "energized": 8986,
      "Phoebe": 8987,
      "Ethel": 8988,
      "Gloria": 8989,
      "Velvet": 8990,
      "devastated": 8991,
      "12": 8992,
      "Bless": 8993,
      "Broo": 8994,
      "Carm": 8995,
      "Ding": 8996,
      "Dino": 8997,
      "Fun": 8998,
      "Found": 8999,
      "Humble": 9000,
      "Nan": 9001,
      "Olly": 9002,
      "Prom": 9003,
      "Piggie": 9004,
      "jay": 9005,
      "lur": 9006,
      "lish": 9007,
      "rash": 9008,
      "riddle": 9009,
      "scut": 9010,
      "tant": 9011,
      "invisible": 9012,
      "halves": 9013,
      "aring": 9014,
      "hatched": 9015,
      "ripples": 9016,
      "wee": 9017,
      "carouse": 9018,
      "coaster": 9019,
      "icles": 9020,
      "birdseed": 9021,
      "grumble": 9022,
      "parking": 9023,
      "caw": 9024,
      "mushy": 9025,
      "shame": 9026,
      "pres": 9027,
      "anybody": 9028,
      "watermelon": 9029,
      "flowed": 9030,
      "brains": 9031,
      "raincoats": 9032,
      "trud": 9033,
      "aker": 9034,
      "Dotty": 9035,
      "ooh": 9036,
      "mates": 9037,
      "fights": 9038,
      "tons": 9039,
      "studies": 9040,
      "scowled": 9041,
      "valleys": 9042,
      "fences": 9043,
      "lifetime": 9044,
      "Wherever": 9045,
      "Blink": 9046,
      "allowance": 9047,
      "knit": 9048,
      "incredibly": 9049,
      "folds": 9050,
      "bumping": 9051,
      "Hooray": 9052,
      "halfway": 9053,
      "clubs": 9054,
      "improving": 9055,
      "shortcut": 9056,
      "steaming": 9057,
      "cellent": 9058,
      "repeats": 9059,
      "wiggles": 9060,
      "Quackie": 9061,
      "Birds": 9062,
      "stares": 9063,
      "charged": 9064,
      "Jody": 9065,
      "Drink": 9066,
      "pounding": 9067,
      "squawked": 9068,
      "Minnie": 9069,
      "considerate": 9070,
      "clutched": 9071,
      "bounded": 9072,
      "horrible": 9073,
      "Books": 9074,
      "proceeded": 9075,
      "allergic": 9076,
      "reckless": 9077,
      "Brooke": 9078,
      "Carmen": 9079,
      "carousel": 9080,
      "'.\"": 9081,
      "Ad": 9082,
      "Dro": 9083,
      "Ed": 9084,
      "Father": 9085,
      "Kit": 9086,
      "Land": 9087,
      "Mus": 9088,
      "Navy": 9089,
      "Rh": 9090,
      "Soup": 9091,
      "Vic": 9092,
      "cit": 9093,
      "granny": 9094,
      "hudd": 9095,
      "lil": 9096,
      "pac": 9097,
      "swat": 9098,
      "zo": 9099,
      "œA": 9100,
      "indoors": 9101,
      "enclos": 9102,
      "los": 9103,
      "strolling": 9104,
      "thous": 9105,
      "pple": 9106,
      "boiled": 9107,
      "roamed": 9108,
      "rack": 9109,
      "smash": 9110,
      "carved": 9111,
      "carts": 9112,
      "helle": 9113,
      "ics": 9114,
      "longing": 9115,
      "tale": 9116,
      "blur": 9117,
      "keepers": 9118,
      "Lucyâ": 9119,
      "Doll": 9120,
      "squashes": 9121,
      "Jimbo": 9122,
      "glared": 9123,
      "Jennif": 9124,
      "tightrope": 9125,
      "studi": 9126,
      "ertain": 9127,
      "protector": 9128,
      "peacefulness": 9129,
      "Reading": 9130,
      "Chicky": 9131,
      "pairs": 9132,
      "crackling": 9133,
      "thoughtfully": 9134,
      "softest": 9135,
      "chirps": 9136,
      "Allie": 9137,
      "recipes": 9138,
      "styles": 9139,
      "energetic": 9140,
      "threads": 9141,
      "Coby": 9142,
      "shields": 9143,
      "darted": 9144,
      "meatballs": 9145,
      "Spider": 9146,
      "resisting": 9147,
      "cables": 9148,
      "possibilities": 9149,
      "bathed": 9150,
      "Catch": 9151,
      "chooses": 9152,
      "Michelle": 9153,
      "Nicky": 9154,
      "banks": 9155,
      "Piper": 9156,
      "racers": 9157,
      "pecking": 9158,
      "Rainbow": 9159,
      "panting": 9160,
      "magnifying": 9161,
      "Steph": 9162,
      "Goldie": 9163,
      "Grab": 9164,
      "Muffin": 9165,
      "carriage": 9166,
      "Frustrated": 9167,
      "Sandra": 9168,
      "Silver": 9169,
      "Pinchy": 9170,
      "suspicious": 9171,
      "trudged": 9172,
      "enclosure": 9173,
      "Jennifer": 9174,
      "studio": 9175,
      ":\"": 9176,
      "Ama": 9177,
      "Down": 9178,
      "Ellen": 9179,
      "Lil": 9180,
      "Sing": 9181,
      "Sid": 9182,
      "Spic": 9183,
      "Tru": 9184,
      "Won": 9185,
      "fting": 9186,
      "gummy": 9187,
      "oars": 9188,
      "pom": 9189,
      "sizz": 9190,
      "tink": 9191,
      "tiring": 9192,
      "œMum": 9193,
      "œWould": 9194,
      "œWill": 9195,
      "ites": 9196,
      "haps": 9197,
      "arrested": 9198,
      "ora": 9199,
      "kest": 9200,
      "plumber": 9201,
      "unkind": 9202,
      "god": 9203,
      "chugged": 9204,
      "ential": 9205,
      "itters": 9206,
      "shimmered": 9207,
      "def": 9208,
      "deck": 9209,
      "foggy": 9210,
      "pollen": 9211,
      "fail": 9212,
      "grump": 9213,
      "cier": 9214,
      "West": 9215,
      "learner": 9216,
      "buys": 9217,
      "suns": 9218,
      "slight": 9219,
      "throne": 9220,
      "walkie": 9221,
      "quicker": 9222,
      "warming": 9223,
      "lighting": 9224,
      "ancing": 9225,
      "empt": 9226,
      "patting": 9227,
      "mats": 9228,
      "tongues": 9229,
      "belief": 9230,
      "benches": 9231,
      "desire": 9232,
      "Pee": 9233,
      "lifeguard": 9234,
      "ggie": 9235,
      "seatbelt": 9236,
      "embarrassing": 9237,
      "laws": 9238,
      "feeder": 9239,
      "spoiling": 9240,
      "Chil": 9241,
      "exams": 9242,
      "fourth": 9243,
      "fuss": 9244,
      "leans": 9245,
      "striking": 9246,
      "guardian": 9247,
      "cuddling": 9248,
      "notices": 9249,
      "porridge": 9250,
      "supportive": 9251,
      "fans": 9252,
      "toothpaste": 9253,
      "Small": 9254,
      "pastor": 9255,
      "capture": 9256,
      "pokes": 9257,
      "community": 9258,
      "supplying": 9259,
      "wrecked": 9260,
      "challenged": 9261,
      ".'\"": 9262,
      "threatened": 9263,
      "securely": 9264,
      "silently": 9265,
      "amongst": 9266,
      "Crab": 9267,
      "Caroline": 9268,
      "Jemma": 9269,
      "sculptures": 9270,
      "hovering": 9271,
      "Barney": 9272,
      "grassho": 9273,
      "fetched": 9274,
      "stunned": 9275,
      "crispy": 9276,
      "Miller": 9277,
      "stormy": 9278,
      "tantrum": 9279,
      "Music": 9280,
      "Rhino": 9281,
      "Spicy": 9282,
      "Abbi": 9283,
      "Bug": 9284,
      "Buggy": 9285,
      "Cass": 9286,
      "DV": 9287,
      "Hot": 9288,
      "Layla": 9289,
      "Mild": 9290,
      "Nel": 9291,
      "Near": 9292,
      "Nella": 9293,
      "OO": 9294,
      "Off": 9295,
      "Park": 9296,
      "Pizza": 9297,
      "Panda": 9298,
      "School": 9299,
      "Span": 9300,
      "Tany": 9301,
      "Toni": 9302,
      "sly": 9303,
      "sens": 9304,
      "vig": 9305,
      "wicked": 9306,
      "œOK": 9307,
      "œAre": 9308,
      "œBecause": 9309,
      "thed": 9310,
      "rebuild": 9311,
      "reaction": 9312,
[...]
